[PAD]
[CLS]
[SEP]
[MASK]
，
的
、
一
人
有
是
在
中
为
和
了
不
年
学
大
国
生
以
“
”
作
业
个
上
用
,
地
会
成
发
工
时
于
理
出
行
要
.
等
他
到
之
这
可
后
家
对
能
公
与
》
《
主
方
分
经
来
全
其
部
多
产
自
文
高
动
进
法
化
：
我
面
）
（
实
教
建
体
而
长
子
下
现
开
本
力
定
性
过
设
合
小
同
机
市
品
水
新
内
事
也
种
及
制
入
所
心
务
就
管
们
得
展
重
民
加
区
物
者
通
天
政
三
电
关
度
第
名
术
最
系
月
外
资
日
代
员
如
间
位
并
书
科
村
应
量
道
前
当
无
里
相
平
从
计
提
保
任
程
技
都
研
十
基
特
好
被
或
目
将
使
山
二
说
数
点
明
情
元
着
收
组
然
美
各
由
场
金
形
农
期
因
表
此
色
起
还
立
世
安
活
专
质
1
规
社
万
信
西
统
结
路
利
次
南
式
意
级
常
师
校
你
育
果
究
司
服
门
海
导
流
项
她
总
处
两
传
东
正
省
院
户
手
具
2
原
强
北
向
先
但
米
城
企
件
风
军
身
更
知
已
气
战
至
单
口
集
创
解
四
标
交
比
商
论
界
题
变
花
3
改
类
运
指
型
调
女
神
接
造
受
广
只
委
去
共
治
达
持
条
网
头
构
县
些
该
又
那
想
样
办
济
5
格
责
车
很
施
求
己
光
精
林
完
爱
线
参
少
积
清
看
优
报
王
直
没
每
据
游
效
感
五
影
别
获
领
称
选
供
乐
老
么
台
问
划
带
器
源
织
放
深
备
视
白
功
取
装
营
见
记
环
队
节
准
石
它
回
历
负
真
增
医
联
做
职
容
士
包
义
观
团
病
4
府
息
则
考
料
华
州
语
证
整
让
江
史
空
验
需
支
命
给
离
认
艺
较
土
古
养
才
境
推
把
均
图
际
斯
近
片
局
修
字
德
权
步
始
复
转
协
即
打
画
投
决
何
约
反
quot
费
议
护
极
河
房
查
布
思
干
价
儿
非
马
党
奖
模
故
编
音
范
识
率
存
引
客
属
评
采
尔
配
镇
室
再
案
监
习
注
根
克
演
食
族
示
球
状
青
号
张
百
素
首
易
热
阳
今
园
防
版
太
乡
英
6
材
列
便
写
住
置
层
助
确
试
难
承
象
居
10
黄
快
断
维
却
红
速
连
众
0
细
态
话
周
言
药
培
血
亩
龙
越
值
几
边
读
未
曾
测
算
京
景
余
站
低
温
消
必
切
依
随
且
志
卫
域
照
许
限
著
销
落
足
适
争
策
8
控
武
按
7
初
角
核
死
检
富
满
显
审
除
致
亲
占
失
星
章
善
续
千
叶
火
副
告
段
什
声
终
况
走
木
益
戏
独
纪
植
财
群
六
赛
远
拉
亚
密
排
超
像
课
围
往
响
击
疗
念
八
云
险
律
请
革
诗
批
底
压
双
男
训
例
汉
升
拥
势
酒
眼
官
牌
油
曲
友
望
黑
歌
筑
础
香
仅
担
括
湖
严
秀
剧
九
举
执
充
兴
督
博
草
般
李
健
喜
授
普
预
灵
突
良
款
罗
9
微
七
录
朝
飞
宝
令
轻
劳
距
异
简
兵
树
序
候
含
福
尽
留
20
丰
旅
征
临
破
移
篇
抗
典
端
苏
奇
止
康
店
毛
觉
春
售
络
降
板
坚
母
讲
早
印
略
孩
夫
藏
铁
害
互
帝
田
融
皮
宗
岁
载
析
斗
须
伤
12
介
另
00
半
班
馆
味
楼
卡
射
述
杀
波
绿
免
兰
绝
刻
短
察
输
择
综
杂
份
纳
父
词
银
送
座
左
继
固
宣
厂
肉
换
补
税
派
套
欢
播
吸
圆
攻
阿
购
听
右
减
激
巴
背
够
遇
智
玉
找
宽
陈
练
追
毕
彩
软
帮
股
荣
托
予
佛
堂
障
皇
若
守
似
届
待
货
散
额
30
尚
穿
丽
骨
享
差
针
索
稳
宁
贵
酸
液
唐
操
探
玩
促
笔
库
救
虽
久
闻
顶
床
港
鱼
亿
登
11
永
毒
桥
冷
魔
秘
陆
您
童
归
侧
沙
染
封
紧
松
川
刘
15
雄
希
毫
卷
某
季
菜
庭
附
逐
夜
宫
洲
退
顾
尼
胜
剂
纯
舞
遗
苦
梦
挥
航
愿
街
招
矿
夏
盖
献
怎
茶
申
39
吧
脑
亦
吃
频
宋
央
威
厚
块
冲
叫
熟
礼
厅
否
渐
笑
钱
钟
甚
牛
丝
靠
岛
绍
盘
缘
聚
静
雨
氏
圣
顺
唱
刊
阶
困
急
饰
弹
庄
既
野
阴
混
饮
损
齐
末
错
轮
宜
鲜
兼
敌
粉
祖
延
100
钢
辑
欧
硬
甲
诉
册
痛
订
缺
晚
衣
佳
脉
gt
盛
乎
拟
贸
扩
船
仪
谁
警
50
停
席
竞
释
庆
汽
仍
掌
诸
仙
弟
吉
洋
奥
票
危
架
买
径
塔
休
付
恶
雷
怀
秋
借
巨
透
誉
厘
句
跟
胞
婚
幼
烈
峰
寻
君
汇
趣
纸
假
肥
患
杨
雅
罪
谓
亮
脱
寺
烟
判
绩
乱
刚
摄
洞
践
码
启
励
呈
曰
呢
符
哥
媒
疾
坐
雪
孔
倒
旧
菌
岩
鼓
亡
访
症
暗
湾
幸
池
讨
努
露
吗
繁
途
殖
败
蛋
握
刺
耕
洗
沉
概
哈
泛
凡
残
隐
虫
朋
虚
餐
殊
慢
询
蒙
孙
谈
鲁
裂
贴
污
漫
谷
违
泉
拿
森
横
扬
键
膜
迁
尤
涉
净
诚
折
冰
械
拍
梁
沿
避
吴
惊
犯
灭
湿
迷
姓
阅
灯
妇
触
冠
答
俗
档
尊
谢
措
筹
竟
韩
签
剑
鉴
灾
贯
迹
洛
沟
束
翻
巧
坏
弱
零
壁
枝
映
恩
抓
屋
呼
脚
绘
40
淡
辖
2010
伊
粒
欲
震
伯
私
蓝
甘
储
胡
卖
梅
16
耳
疑
润
伴
泽
牧
烧
尾
累
糖
怪
唯
莫
粮
柱
18
竹
灰
岸
缩
井
伦
柔
盟
珠
丹
amp
皆
哪
迎
颜
衡
啊
塑
寒
13
紫
镜
25
氧
误
伍
彻
刀
览
炎
津
耐
秦
尖
潮
描
浓
召
禁
阻
胶
译
腹
泰
乃
盐
潜
鸡
诺
遍
2000
纹
冬
牙
麻
辅
猪
弃
楚
羊
晋
14
鸟
赵
洁
谋
隆
滑
60
2008
籍
臣
朱
泥
墨
辆
墙
浪
姐
赏
纵
2006
拔
倍
纷
摩
壮
苗
偏
塞
贡
仁
宇
卵
瓦
枪
覆
殿
刑
贫
妈
幅
幕
忆
丁
估
废
萨
舍
详
旗
岗
洪
80
贝
2009
迅
凭
勇
雕
奏
旋
杰
煤
阵
乘
溪
奉
畜
挑
昌
硕
庙
惠
薄
逃
爆
哲
浙
珍
炼
栏
暴
币
隔
吨
倾
嘉
址
陶
绕
诊
遭
桃
魂
兽
豆
闲
箱
拓
燃
裁
晶
掉
脂
溶
顿
肤
虑
鬼
2007
灌
徐
龄
陵
恋
侵
坡
寿
勤
磨
妹
瑞
缓
轴
麦
羽
咨
凝
默
驻
敢
债
17
浮
幻
株
浅
敬
敏
陷
凤
坛
虎
乌
铜
御
乳
讯
循
圈
肌
妙
奋
忘
闭
墓
21
汤
忠
2005
跨
怕
振
宾
跑
屏
坦
粗
租
悲
伟
拜
24
妻
赞
兄
宿
碑
貌
勒
罚
夺
偶
截
纤
2011
齿
郑
聘
偿
扶
豪
慧
跳
the
疏
莱
腐
插
恐
郎
辞
挂
娘
肿
徒
伏
磁
杯
丛
旨
琴
19
炮
醒
砖
替
辛
暖
锁
杜
肠
孤
饭
脸
邮
贷
lt
俄
毁
荷
谐
荒
肝
链
2004
2012
尺
尘
援
a
疫
崇
恢
扎
伸
幽
抵
胸
谱
舒
迫
200
畅
泡
岭
喷
70
窗
捷
宏
肯
90
狂
铺
骑
抽
券
俱
徽
胆
碎
邀
褐
斤
涂
赋
署
颗
2003
渠
仿
迪
炉
辉
涵
耗
22
返
邻
斑
董
魏
午
娱
浴
尿
曼
锅
柳
舰
搭
旁
宅
趋
of
凉
赢
伙
爷
廷
戴
壤
奶
页
玄
驾
阔
轨
朗
捕
肾
稿
惯
侯
乙
渡
稍
恨
脏
2002
姆
腔
抱
杆
垂
赴
赶
莲
辽
荐
旦
妖
2013
稀
驱
沈
役
晓
亭
仲
澳
500
炸
绪
28
陕
and
23
恒
堡
纠
仇
懂
焦
搜
s
忍
贤
添
i
艾
赤
犹
尝
锦
稻
撰
填
衰
栽
邪
粘
跃
桌
胃
悬
c
翼
彼
睡
曹
刷
摆
悉
锋
26
摇
抢
乏
廉
鼠
盾
瓷
抑
埃
邦
遂
寸
渔
祥
胎
牵
壳
甜
卓
瓜
袭
遵
巡
逆
玛
韵
2001
桑
酷
赖
桂
郡
肃
仓
寄
塘
瘤
300
碳
搞
燕
蒸
允
忽
斜
穷
郁
囊
奔
昆
盆
愈
递
1000
黎
祭
怒
辈
腺
滚
暂
郭
璃
踪
芳
碍
肺
狱
冒
阁
砂
35
苍
揭
踏
颇
柄
闪
孝
葡
腾
茎
鸣
撤
仰
伐
丘
於
泪
荡
扰
纲
拼
欣
纽
癌
堆
27
菲
b
披
挖
寓
履
捐
悟
乾
嘴
钻
拳
吹
柏
遥
抚
忧
赠
霸
艰
淋
猫
帅
奈
寨
滴
鼻
掘
狗
驶
朴
拆
惜
玻
扣
萄
蔬
宠
2014
缴
赫
凯
滨
乔
腰
葬
孟
吾
枚
圳
忙
扫
杭
凌
1998
梯
丈
隶
1999
剪
盗
擅
疆
弯
携
拒
秒
颁
醇
割
浆
姑
爸
螺
穗
缝
慈
喝
瓶
漏
悠
猎
番
孕
伪
漂
腿
吐
坝
滤
函
匀
偷
浩
矛
僧
辨
俊
棉
铸
29
诞
丧
夹
to
姿
睛
淮
阀
姜
45
尸
猛
1997
芽
账
旱
醉
弄
坊
烤
萧
矣
雾
倡
榜
弗
氨
朵
锡
袋
拨
湘
岳
烦
肩
熙
炭
婆
棋
禅
穴
宙
汗
艳
儒
叙
晨
颈
峡
拖
烂
茂
戒
飘
氛
蒂
撞
瓣
箭
叛
1996
31
鞋
劲
祝
娜
饲
侍
诱
叹
卢
弥
32
鼎
厦
屈
慕
魅
m
厨
嫁
绵
逼
扮
叔
酶
燥
狼
滋
汁
辐
怨
翅
佩
坑
旬
沃
剩
蛇
颖
篮
锐
侠
匹
唤
熊
漠
迟
敦
雌
谨
婴
浸
磷
筒
2015
滩
埋
框
弘
吕
碰
纺
硫
堪
契
蜜
蓄
1995
阐
apos
傲
碱
晰
狭
撑
叉
卧
劫
闹
赐
邓
奴
溉
浦
蹈
辣
遣
耀
耶
翠
t
叠
迈
霍
碧
恰
脊
昭
摸
饱
赔
泄
哭
讼
逝
逻
廊
擦
渗
彰
you
卿
旺
宪
36
顷
妆
陪
葛
仔
淀
翰
悦
穆
煮
辩
弦
in
串
押
蚀
逢
贺
焊
煌
缔
惑
鹿
袁
糊
逸
舟
勃
侦
涯
蔡
辟
涌
枯
痕
疼
莉
柴
1993
眉
1992
罢
催
衔
秉
妃
鸿
傅
400
辰
聪
咸
1994
扇
盈
勘
佐
泊
抛
搬
牢
宴
牲
贾
摘
姻
慎
帕
忌
卒
夕
卜
惟
挺
崖
炒
爵
冻
椒
鳞
祸
潭
腊
蒋
缠
寂
眠
冯
芯
槽
吊
33
150
聊
梗
嫩
凶
铭
爽
筋
韦
脾
铝
肢
栋
勾
萌
渊
掩
狮
撒
漆
骗
禽
38
蕴
坪
洒
冶
兹
椭
喻
泵
哀
翔
1990
棒
芝
x
扑
3000
毅
衍
惨
疯
欺
贼
肖
轰
巢
臂
轩
扁
淘
犬
宰
祠
挡
厌
帐
蜂
狐
垃
昂
圾
秩
芬
瞬
枢
舌
唇
棕
1984
霞
霜
艇
侨
鹤
硅
靖
哦
削
泌
奠
d
吏
夷
咖
彭
窑
胁
肪
120
贞
劝
钙
柜
鸭
75
庞
兔
荆
丙
纱
34
戈
藤
矩
泳
惧
铃
渴
胀
袖
丸
狠
豫
茫
1985
浇
菩
氯
啡
1988
葱
37
梨
霉
脆
氢
巷
丑
娃
锻
愤
贪
蝶
1991
厉
闽
浑
斩
栖
l
茅
昏
龟
碗
棚
滞
慰
600
2016
斋
虹
屯
萝
饼
窄
潘
绣
丢
芦
鳍
42
裕
誓
腻
48
95
锈
吞
蜀
啦
扭
5000
巩
髓
1987
劣
拌
谊
涛
勋
郊
莎
痴
窝
驰
1986
跌
笼
挤
溢
1989
隙
55
鹰
诏
帽
65
芒
爬
凸
牺
熔
吻
竭
瘦
冥
800
搏
屡
昔
萼
愁
捉
翁
怖
汪
烯
疲
缸
溃
85
泼
剖
涨
橡
谜
悔
嫌
盒
苯
凹
绳
畏
罐
虾
柯
邑
馨
兆
帖
陌
禄
垫
壶
逊
骤
祀
晴
蓬
e
苞
煎
菊
堤
甫
拱
氮
罕
舶
伞
姚
弓
嵌
1983
1982
馈
琼
噪
雀
呵
汝
焉
陀
胺
惩
沼
枣
桐
酱
遮
孢
钝
呀
锥
妥
酿
巫
闯
沧
崩
蕊
酬
匠
躲
43
喊
98
琳
46
绎
喉
凰
抬
93
膨
盲
剥
喂
庸
奸
n
钩
冈
募
苑
杏
杉
辱
隋
薪
绒
1980
99
欠
尉
r
攀
抹
巾
1958
渣
苹
猴
悄
屠
41
颂
湛
魄
颠
1949
呆
粤
岂
娇
暑
44
56
52
鹅
筛
膏
樱
p
缆
襄
瑟
恭
泻
匪
兮
恼
吟
仕
蔽
骄
蚕
斥
椅
姬
谦
for
椎
搅
卸
沫
怜
坎
瑰
1978
钦
h
拾
厕
後
逾
薯
衬
钾
崔
稽
蛮
殷
晒
47
菇
臭
弧
擎
粹
纬
1500
焰
玲
竣
咒
歇
糕
诵
茨
妮
酯
麟
卑
浏
咽
罩
舱
酵
晕
顽
赁
咬
枫
冀
贮
艘
亏
薛
瀑
篆
膀
沸
雍
咳
尹
愉
烹
坠
勿
钠
64
坤
甸
墅
闸
藻
韧
鄂
58
51
91
j
瑶
舆
夸
54
蕾
栗
咏
丞
抄
鹏
弊
檐
骂
仆
峻
爪
赚
帆
娶
嘛
钓
澄
猜
1979
裔
抒
铅
卉
彦
f
删
衷
禹
寡
蒲
砌
on
棱
72
拘
堵
雁
仄
荫
53
k
1981
祈
49
奢
赌
寇
3d
隧
摊
雇
卦
婉
敲
挣
皱
虞
亨
懈
挽
珊
饶
滥
锯
闷
it
酮
虐
兑
僵
傻
62
沦
巅
鞭
梳
赣
锌
庐
薇
庵
57
96
慨
肚
妄
g
仗
绑
2017
枕
牡
000
胖
沪
垒
捞
捧
竖
蜡
桩
厢
孵
黏
拯
63
谭
68
诈
灿
釉
1956
裹
钮
俩
o
灶
彝
蟹
涩
醋
110
匙
歧
刹
玫
棘
橙
凑
桶
刃
伽
4000
硝
怡
籽
敞
淳
矮
镶
戚
幢
涡
66
尧
膝
is
哉
肆
畔
溯
97
媚
烘
01
67
窃
焚
澜
愚
棵
乞
86
78
佑
76
iphone
暨
敷
饥
俯
蔓
v
05
88
暮
砍
邵
仑
毗
剿
馀
180
锤
刮
1950
梭
摧
250
掠
躯
诡
匈
侣
胚
疮
59
裙
windows
裸
08
塌
吓
俘
糙
藩
楷
羞
with
鲍
帘
裤
宛
憾
桓
痰
寞
骚
惹
笋
萃
92
栓
61
挫
矢
垦
09
垄
绸
凄
your
镀
熏
钉
1945
led
粪
缅
洽
鞘
蔗
82
迄
沐
凿
勉
昨
喘
700
爹
屑
耻
沥
庶
涅
腕
袍
懒
阜
嗜
朔
1200
蒜
沛
坟
轿
喀
笛
狄
饿
蓉
泣
窟
130
豹
屿
73
崛
迦
诠
贬
腥
83
钥
嗣
瑜
07
倦
萎
拦
冤
讽
潇
谣
趁
1960
妨
84
贩
74
萍
窦
纂
缀
矫
淑
墩
梵
沾
淫
乖
汰
莞
81
旷
浊
挚
撼
69
87
氟
焕
06
庚
掀
诀
kg
盼
71
疹
窖
匆
厥
轧
89
淹
94
160
亥
鸦
棍
谅
歼
汕
挪
蚁
敛
魁
畴
炫
丫
奎
菱
沂
撕
阎
詹
03
蛛
77
靡
瞻
咱
愧
烷
畸
灸
眸
that
觅
芜
1955
廓
斌
躁
麓
摔
1970
烛
睹
孜
缚
堕
昼
睿
琪
琉
贱
6000
渝
跋
1959
茄
1957
舜
1976
诛
1952
捣
芙
04
1961
倚
1938
酰
澈
慌
帜
颤
陇
1962
02
颌
昧
佣
眷
徙
禾
逮
1948
79
莹
碟
梢
朽
粥
喇
1964
榆
驳
楔
1965
啸
肋
dna
踢
1975
1937
u
傍
桔
肴
呕
旭
埠
贿
曝
杖
俭
栩
1953
斧
镁
匾
踩
橘
颅
1963
囚
蛙
1946
膳
坞
琐
荧
瘟
涤
胰
衫
噬
皖
邱
埔
汀
羡
睐
葵
耿
糟
厄
秧
黔
蹄
140
漳
鞍
谏
腋
簇
梧
戎
1977
榴
诣
宦
苔
揽
簧
狸
阙
扯
耍
棠
脓
烫
翘
芭
躺
羁
藉
拐
1966
陡
1954
漓
棺
钧
琅
扔
寝
绚
熬
驿
邹
杠
1972
w
绥
窥
晃
渭
1947
樊
鑫
祁
陋
哺
堰
祛
y
梓
崎
1968
孽
蝴
蔚
抖
苟
肇
溜
绅
妾
1940
跪
沁
q
1973
莽
虏
be
瞄
砸
稚
僚
崭
迭
皂
彬
雏
ip
羲
缕
绞
俞
簿
耸
廖
嘲
can
1969
翌
榄
裴
槐
1939
洼
睁
1951
灼
啤
臀
啥
濒
醛
峨
葫
悍
笨
嘱
1935
稠
360
韶
1941
陛
峭
1974
酚
翩
舅
8000
寅
1936
蕉
阮
垣
戮
me
趾
犀
巍
re
霄
1942
1930
饪
sci
秆
朕
驼
肛
揉
ipad
楠
岚
疡
帧
柑
iso9001
赎
逍
滇
璋
礁
黛
钞
邢
涧
劈
瞳
砚
驴
1944
锣
恳
栅
吵
牟
沌
瞩
咪
毯
炳
淤
盯
芋
粟
350
栈
戊
盏
峪
拂
暇
酥
汛
900
pc
嚣
2500
轼
妒
匿
1934
鸽
蝉
cd
痒
宵
瘫
1927
1943
璧
汲
1971
冢
碌
琢
磅
卤
105
剔
谎
圩
酌
捏
渺
媳
1933
穹
谥
骏
哨
骆
乒
10000
摹
兜
柿
喧
呜
捡
橄
逗
瑚
呐
檀
辜
妊
祯
1931
苷
don
衙
笃
芸
霖
荔
闺
羌
芹
dvd
哼
糯
吼
蕃
嵩
矶
绽
坯
娠
1928
祷
锰
qq
by
瘀
108
岐
1932
茵
筝
斐
肽
歉
1929
嗽
恤
汶
聂
樟
擒
鹃
拙
鲤
絮
鄙
彪
ipod
z
嗓
墟
骼
渤
僻
豁
谕
荟
姨
婷
挠
哇
炙
220
诅
娥
哑
阱
嫉
圭
乓
橱
歪
禧
甩
坷
晏
驯
讳
泗
煞
my
淄
倪
妓
窍
竿
襟
匡
钛
侈
ll
侄
铲
哮
厩
1967
亢
101
辕
瘾
辊
狩
掷
潍
240
伺
嘿
弈
嘎
陨
娅
1800
昊
犁
屁
蜘
170
寥
滕
毙
as
涝
谛
all
郝
痹
溺
汾
脐
馅
蠢
珀
腌
扼
敕
莓
峦
铬
谍
炬
龚
麒
睦
磺
吁
掺
烁
靶
or
圃
饵
褶
娟
滔
挨
android
褒
胱
cpu
晖
脖
垢
抉
冉
茧
from
渲
癫
125
de
悼
嫂
瞒
纶
肘
炖
瀚
皋
姊
颐
1600
俏
颊
gps
讶
札
奕
磊
镖
遐
眺
腑
boss
琦
蚊
窜
渍
嗯
102
1926
touch
夯
1300
笙
蘑
翡
碘
卯
啼
靓
辍
莺
躬
猿
杞
眩
虔
凋
遁
泾
岔
羟
弛
娄
茸
皓
峙
逅
邂
苇
楹
蹲
拢
甄
鳃
104
邯
捆
勺
450
酉
荚
唑
臻
辗
绰
徊
榨
苛
赦
盔
壬
恍
缉
2020
熨
7000
澡
桨
匣
兢
106
驭
x1
镍
孰
绮
馏
蝇
佼
鲸
128
哎
裳
蜕
嚼
嘻
web
庇
绢
倩
钵
ii
恪
帷
莆
柠
藕
砾
115
绊
喙
坂
徘
荀
瞧
蛾
1925
晦
ph
mm
铎
107
紊
锚
酪
稷
聋
闵
熹
冕
诫
珑
曦
篷
320
迥
蘖
胤
103
檬
瑾
钳
遏
辄
嬉
隅
ps
秃
112
帛
聆
芥
诬
1100
挟
宕
2018
鹊
琶
膛
mv
兀
gb
懿
碾
叮
863
蠕
譬
缮
烽
妍
榕
260
1920
邃
焙
倘
210
戌
茹
豚
晾
浒
玺
醚
祐
炽
this
缪
凛
噩
溅
毋
槛
ei
are
嫡
蝠
娴
稣
禀
壑
殆
敖
cm
ios
倭
挛
侃
蚌
咀
盎
殉
岑
浚
谬
狡
1924
癸
280
逛
耽
俺
璨
巳
茜
郸
蒴
琵
we
230
叩
泸
塾
one
稼
reg
侮
锂
曙
3500
up
薰
婿
惶
拭
篱
恬
淌
烙
袜
徵
慷
夭
噶
莘
135
鸳
殡
蚂
1900
憎
喃
佚
龛
潢
烃
at
岱
潺
109
衢
璀
5cm
1400
鹭
揣
痢
know
厮
氓
怠
no
nbsp
痘
硒
镌
乍
咯
惬
not
桦
骇
枉
蜗
睾
淇
耘
娓
弼
鳌
嗅
gdp
狙
箫
朦
椰
胥
丐
陂
唾
鳄
柚
谒
journal
戍
1912
刁
鸾
缭
骸
铣
酋
蝎
掏
耦
怯
娲
拇
汹
胧
疤
118
硼
恕
哗
眶
痫
凳
鲨
擢
歹
樵
瘠
app
茗
翟
黯
蜒
壹
殇
伶
辙
an
瑕
町
孚
痉
铵
搁
漾
戟
镰
鸯
猩
190
蔷
缤
叭
垩
113
曳
usb
奚
毓
ibm
颓
汐
靴
china
傣
尬
濮
赂
媛
懦
扦
111
韬
like
戳
java
雯
114
蜿
116
1923
笺
裘
尴
侗
mba
3g
钨
1919
苓
1922
寰
蛊
扳
搓
涟
睫
淬
5mm
123
ve
121
赈
恺
瞎
蝙
1921
枸
萱
颚
憩
秽
秸
拷
阑
貂
粱
煲
隘
暧
惕
沽
time
菠
1911
趟
磋
偕
涕
邸
so
踞
惫
122
阪
鞠
饺
汞
颍
氰
屹
蛟
跻
哟
have
126
臼
熄
绛
弩
褪
117
渎
亟
匮
撇
internet
霆
攒
舵
扛
彤
nba
蛤
婢
偃
胫
姥
睑
love
iso
pk
诙
what
诲
锭
悚
扒
洱
劾
惰
篡
瓯
徇
铀
骋
flash
1918
out
筷
渚
踵
俨
ceo
榻
糜
捻
釜
哩
萤
270
蛹
隽
垮
鸠
鸥
漕
瑙
礴
憧
殴
潼
悯
砺
拽
钗
ct
酣
镂
mp3
膺
楞
竺
迂
嫣
忱
cad
哄
疣
鹦
1700
枭
憬
疱
will
婪
沮
1914
怅
119
筱
扉
瞰
linux
旌
蔑
铠
瀛
vip
琥
750
127
懵
谴
捍
蟾
漩
1913
拣
汴
university
刨
叱
曜
妞
澎
镑
翎
瞪
sh
倔
芍
璞
瓮
驹
芷
寐
擂
丕
蟠
诃
悸
亘
溴
宸
廿
恃
棣
1917
荼
筠
羚
慑
唉
纣
麼
蹦
锄
145
international
124
淆
甙
132
蚜
椿
禺
绯
冗
168
葩
厝
媲
蒿
痪
650
菁
炊
wifi
俑
new
讥
min
桀
祺
129
吡
迩
do
john
箔
皿
缎
萦
剃
霓
酝
mg
诰
茉
just
get
飙
湍
蜥
箕
蘸
550
4500
柬
韭
溥
but
熠
鹉
咐
剌
138
悖
瞿
槟
娩
闾
pvc
遴
咫
20000
孺
彷
茬
211
蓟
li
if
憨
袅
佬
炯
erp
1910
啶
昙
蚩
136
痔
蕨
瓢
夔
毡
赃
鳖
沅
wang
go
饷
165
臧
掖
褚
羹
ic
勐
tv
谚
畦
眨
贻
攸
涎
弑
咎
铂
瑛
1905
矗
虱
more
133
秤
谟
漱
俸
夙
1915
br
game
雉
螨
恣
斛
175
谙
隍
131
奄
480
yy
1916
壕
髻
155
鄱
嘶
磕
濡
赘
荞
讹
猕
痞
鬓
铮
腱
幡
榭
爻
5m
涓
晤
咕
惭
钼
匕
ok
撮
庾
笠
窘
癖
365
垛
窒
畲
甬
彗
缨
湮
寮
et
衅
谪
156
绫
9000
152
兖
疽
磐
380
菏
沱
骁
嫔
盂
娆
钊
蟒
忏
谤
148
137
server
2200
晟
ng
15000
google
痈
耆
谧
簪
134
ml
疟
扈
脍
琛
咋
胄
142
144
葆
轶
桢
973
攘
was
邕
拧
茯
205
摒
1908
intel
傀
祚
嘟
帼
1906
wto
筵
when
馒
疚
璇
砧
merge
槃
microsoft
犷
exe
腓
煜
弋
疸
濑
310
201
麝
嗟
忻
愣
facebook
斓
吝
咧
矾
愫
151
158
漪
珂
rna
逞
146
206
糠
璐
藓
昕
妩
屌
疵
excel
嘘
he
plc
袂
2400
139
稃
剁
侏
掐
猾
匍
2800
坳
黜
邺
闫
猥
湃
斟
癣
1904
185
匐
粳
sql
330
141
cp
1909
叟
俾
儡
莒
12000
骥
跤
耙
矜
翱
zhang
ms
赡
1907
浣
栾
拈
science
420
螟
aaa
桧
坍
睢
趴
id
伎
2100
婺
霹
痊
膊
眯
豌
202
驮
骈
850
iii
嶂
淞
143
腮
髅
炀
啄
亳
麾
147
筐
叨
徨
跷
ac
楂
郴
绶
hp
羔
xp
ieee
咤
now
there
靳
they
屎
雳
瘘
蹬
2300
惮
acid
涪
阖
煽
蹊
225
栉
153
俟
涸
辫
锢
佟
176
皎
cctv
啮
钰
螂
dc
啪
绷
204
闰
畿
2d
覃
2600
惘
贰
154
碉
卞
酐
枷
葺
芪
207
蕙
192
咚
籁
pro
钴
162
冽
玮
骷
啃
焖
猝
榈
滁
拮
跗
讷
蝗
208
蠡
world
烨
been
hd
gmp
256
脯
歙
泠
刍
掳
pe
his
僳
340
1902
螯
胳
髦
粽
戾
祜
178
186
岷
懋
馥
昵
踊
湄
郢
斡
迢
ce
photoshop
嗪
about
裨
1903
羧
膈
翊
lcd
鲫
163
螃
沓
疝
笈
ktv
榔
157
诘
autocad
195
颉
蛀
鸢
焯
囧
make
梆
npc
潞
戛
see
system
149
佗
艮
chinese
let
霾
鬟
215
net
玖
1898
腭
喔
172
罔
佥
粑
visual
舷
泯
m2
198
has
203
sd
泓
炜
谗
烬
跆
rpg
傩
飓
浔
钤
惚
胭
踝
镯
ep
221
臆
196
蜚
揪
觞
皈
dj
183
api
迸
匝
筏
167
醴
黍
洮
滦
侬
甾
290
way
3200
188
diy
2cm
com
澧
阈
袱
迤
衮
166
濂
娑
砥
砷
铨
缜
箴
30000
逵
猖
159
蛰
箍
侥
2mm
搂
纨
裱
枋
嫦
敝
挝
贲
潦
235
撩
惺
铰
f1
忒
咆
哆
莅
164
炕
抨
涿
龈
猷
got
b1
182
2m
212
遒
缥
vs
捂
俐
la
瘙
搐
牍
isbn
馍
our
痿
袤
峥
184
栎
罹
燎
喵
209
1901
璜
飒
蔼
珞
澹
奘
岖
芡
簸
杵
甥
骊
216
悴
173
惆
5mg
殃
1895
呃
161
5g
祗
3600
髋
169
liu
who
幔
down
榛
犊
霁
芮
520
牒
佰
her
狈
薨
co
吩
鳝
嵘
濠
呤
纫
3mm
檄
214
浜
370
189
缙
缢
煦
蓦
揖
拴
缈
218
褥
铿
312
燮
life
锵
174
荥
187
忿
4s
僖
婶
171
chen
芾
镐
痣
research
眈
460
祇
邈
翳
碣
遨
鳗
诂
never
岫
焘
3cm
co2
茱
tcp
only
255
gsm
say
洵
晁
right
噢
she
over
偈
旖
david
181
232
蚓
柘
珐
遽
岌
桅
213
唔
222
鄞
雹
michael
驸
苻
恻
鬃
玑
磬
崂
304
祉
荤
淼
560
264
肱
呗
pp
b2
骡
囱
10cm
佞
back
1890
226
耒
伫
嚷
粼
aa
歆
佃
旎
惋
殁
杳
their
阡
red
畈
蔺
os
177
map
巽
cbd
昱
啰
吠
179
199
嗔
涮
238
奂
1896
撷
301
袒
720
爰
捶
赭
蜓
姗
蔻
垠
193
gis
噻
ab
峒
皙
want
245
憔
帚
office
xx
杷
蟆
iso14001
觐
钒
岙
2700
1899
栀
幄
啧
癜
擀
轲
铆
them
讴
樽
霏
mtv
肮
枳
骞
诧
瘢
虬
拗
play
219
蕲
316
茁
唆
technology
word
沭
毂
蛎
芊
銮
瞥
呱
223
羿
吒
傥
髯
濯
蜻
皴
802
430
邳
燧
1860
獭
垭
祟
217
虢
how
枇
abs
鹫
194
颞
1894
333
皑
脲
197
舔
魇
霭
org
坨
郧
baby
椽
舫
228
oh
305
荠
琊
溟
1897
煨
265
谯
粲
罂
gonna
屉
佯
郦
亵
诽
芩
嵇
蚤
哒
315
啬
ain
嚎
玥
twitter
191
隼
唢
铛
cause
壅
藜
won
吱
rom
楣
璟
锆
憋
罡
al
咙
1850
腈
oslash
job
233
廪
堑
into
诩
b2c
溧
鹑
讫
哌
铢
蜴
1ml
稹
噜
镉
224
愕
桁
晔
琰
陲
疙
667
崮
need
540
8mm
html
颛
through
asp
桡
钜
580
take
谑
仞
咦
珪
揍
鱿
阉
3800
瘩
410
槌
滓
茴
tft
泮
涣
atm
pci
柞
渥
飨
孪
沔
谲
桉
vcd
慵
318
oem
other
俚
paul
跖
纭
恙
which
fi
佘
236
荃
咄
鞅
叁
james
恽
m3
253
炔
萘
钺
6500
1880
ccd
楫
塬
钡
琮
苄
950
325
275
1g
day
o2o
960
music
骰
偎
粕
amd
咔
鹄
瓒
阆
捅
嬴
adobe
箨
name
390
680
640
氦
倜
b2b
觊
xml
婕
229
jar
锑
撬
chem
掰
嗷
5500
1cm
饯
蓓
234
good
鼬
spa
佤
5a
ss
蚯
挞
臾
where
atp
227
嶙
幂
饬
闱
live
high
煅
嘧
1mm
蹭
sun
abc
瞭
顼
箐
here
徉
231
骜
302
嗨
邛
庑
柩
饕
俎
4mm
15g
嘌
50000
颏
cssci
椁
崧
锉
籼
1870
狞
弁
6mm
羯
踹
糅
248
1840
砼
263
嫖
tmp
252
mac
285
豉
啉
榷
嘈
en
俪
痂
308
inf
630
儋
4a
芎
ai
man
繇
1889
bt
239
meta
蹇
242
530
诋
bbc
煸
峋
淙
324
management
1885
泱
徜
crm
4cm
free
汩
纥
246
蝼
囿
uv
暹
谆
蹂
鞣
3c
mr
螳
cs
馗
幺
鞑
贽
268
istp
243
漯
237
牦
淖
engineering
dr
囤
than
gprs
sp
440
晗
1888
258
忡
懊
呋
埂
pcb
307
first
321
robert
鲈
sup2
阕
3m
幌
cg
303
鳅
勰
find
8cm
萸
剽
蚝
wi
绔
pdf
1250
262
php
辇
10mg
use
ie
麋
1884
陟
宥
oracle
锺
喽
620
1892
1893
淅
熵
荨
247
忤
american
266
seo
轭
嗦
荪
also
骠
鹘
p2p
4g
聿
绾
诶
985
怆
244
喋
恸
湟
睨
翦
fe
蜈
1875
褂
娼
1886
羸
觎
470
瘁
306
蚣
呻
241
1882
昶
谶
猬
荻
school
286
酗
unit
肄
躏
膑
288
2g
嗡
273
iv
cam
510
庠
崽
254
搪
pcr
胯
309
铉
峤
郯
藐
舂
come
蓼
some
薏
窿
羣
氽
徕
冼
rs
阂
欤
殒
窈
脘
780
篝
yang
1861
3300
iso9000
麸
砭
max
砰
骶
豺
lg
窠
獒
think
腴
苕
any
its
缇
骅
劭
college
卅
ups
揆
垅
na
6cm
琏
镗
苜
胛
1881
black
珏
吮
抠
搔
276
rock
251
槎
4200
323
掣
pet
1887
ap
琨
餮
375
舛
give
si
痤
us
311
278
埭
english
peter
1891
820
胪
喹
妲
婀
帙
10g
oa
7500
箩
灏
霎
logo
袄
dsp
bl
镭
蓿
power
long
墉
too
嵊
1862
girl
堇
king
蟋
610
叽
249
钎
30cm
fm
録
group
1883
郓
瘴
vol
丶
呦
邬
頫
272
馁
hiv
鄢
257
1876
ordm
蛭
322
愍
锲
槿
珈
best
4800
mri
1080
fda
10mm
261
nt
660
super
1m
center
ui
335
蜃
298
拎
鎏
裟
沏
np
螭
7mm
觑
墒
捺
轸
micro
榫
based
319
怔
ram
618
昀
even
泷
1864
ca
凫
唠
狰
鲛
氐
呛
绀
碛
茏
盅
蟀
洙
off
訇
蠹
auml
dos
20cm
267
棂
18000
蚴
篾
two
靛
暄
show
1868
泞
cdma
mark
vc
洄
赓
麽
25000
篓
孑
860
烩
980
design
颢
钣
var
髂
蹴
wanna
筮
蝌
醮
home
菖
fun
cmos
獗
friends
business
岘
570
鼐
1865
姣
national
1874
蟑
袈
葶
掬
most
vga
emba
躇
30g
鹌
city
踌
282
钹
蚪
颧
001
13000
鹳
274
km
345
1050
stop
328
then
鲲
驷
潴
295
386
焱
稔
悌
mpeg
st
suv
vista
a1
vi
283
help
basic
唏
11000
苒
蹙
house
heart
ouml
281
氩
bug
mobile
宓
service
dll
綦
苎
application
疃
methyl
攫
rfid
100g
287
掾
1871
徭
490
舀
逶
嗤
760
0m
ge
1872
people
hr
蜷
茔
512
疳
迳
罄
瓠
100mg
讪
psp
av
傈
ppp
杲
灞
氲
鬲
獠
柒
骧
1848
away
william
326
搀
珩
绦
1879
嚏
710
镛
喱
倏
馋
茭
擘
斫
284
1mg
怂
hdmi
唧
犍
谩
赊
317
271
wu
鬻
禛
15cm
259
840
feel
485
圻
10m
蹶
5kg
1877
1873
缄
瘿
黠
甑
矸
嘀
il
蹼
jack
lee
269
叼
di
313
旻
auc
502
1350
鹜
289
fc
稗
336
999
association
many
293
雒
george
td
赉
style
馔
颦
ul
ld50
1867
颔
掇
1863
each
赅
桎
inc
痧
dv
谄
孛
笆
鲶
铳
3100
mc
tell
4m
blue
327
299
bios
龋
385
盱
笏
2030
窕
苴
314
big
1866
296
萋
355
辘
琬
cu
梏
much
蚧
3400
1280
镳
24h
own
670
studio
瞅
keep
6g
ppt
conference
around
information
睬
1878
class
偌
鲵
惦
1830
蜍
mp4
why
靼
1851
332
阗
菟
黝
1650
control
挈
嵴
剡
358
楸
dha
氤
m1
vr
呎
珲
5ml
馄
滂
338
蹉
蓑
锷
297
279
啜
1644
sm
婵
well
鬣
7cm
钿
bbs
晌
蛆
隗
酞
枞
352
work
always
9g
戬
獾
镕
star
easy
饨
娣
缰
邾
334
8m
ni
鹗
277
425
end
had
嗒
苋
薮
棹
type
richard
880
6m
拄
air
埕
勖
鹞
殚
鲢
pop
a4
1750
ftp
16000
啖
ad
沣
501
靥
葭
诿
htc
鸪
007
饴
t1
疖
抟
睽
770
access
tcl
稞
吋
谀
澍
杈
妤
sata
part
峄
systems
漉
40000
ever
気
368
咲
qs
ta
璘
ltd
mol
media
萜
僭
朐
742
1855
cc
圜
癞
藿
555
珉
isp
set
1450
陉
him
僮
292
膻
1853
薹
810
汊
still
锗
昉
pvp
猗
http
1859
3700
strong
3a
锶
real
跛
art
1869
331
1368
嘹
337
瓤
402
衄
1856
1820
1150
matlab
豕
吆
腆
thomas
a2
294
le
366
using
356
bb
喆
smith
different
莴
401
谌
ci
珙
疥
kw
鲑
405
玷
蛔
砀
361
zh
nasa
materials
329
nature
1h
谔
睥
ch
20mg
2mg
du
mail
data
every
蹑
诒
逋
372
while
姝
刈
婧
going
喳
镞
铌
291
712
辎
鹧
檩
740
扪
10ml
霰
ar
裆
ol
嬷
0mm
ufo
charles
20mm
tvb
apple
刎
iec
project
sbs
嵋
342
690
悱
920
嘤
jean
篁
荸
瞑
殓
搽
50mg
343
橇
include
eva
雎
弭
獐
haccp
恿
video
cf
vpn
society
眦
730
铐
song
尕
捎
诟
institute
痨
cn
369
笞
756
version
des
sns
趺
590
award
唬
苣
css
lte
xu
fbi
啾
瘪
垸
357
橹
after
濛
曷
level
樾
very
汨
仟
姒
1858
again
怦
荏
tom
诤
苡
吭
830
dm
before
406
崆
氡
young
脩
lan
胝
钏
3ds
cr
arm
pos
night
屐
395
忐
彧
拚
鏖
344
100ml
525
孳
1024
yu
忑
384
邝
穰
403
摈
庖
351
鸵
398
hello
矽
354
鲟
said
381
768
発
762
sap
1854
msn
菅
book
353
true
339
javascript
348
2900
圪
蹋
衾
簋
璎
367
噎
911
嬗
346
肼
362
359
跎
滟
little
4300
701
戦
嵬
look
仝
phys
club
惇
纾
times
14000
炁
382
xyz
number
ak
mind
huang
闳
骐
秣
眙
谘
碓
iso9002
疔
412
恂
am
top
master
鳕
green
鸱
int
爨
镊
404
were
4600
em
better
钯
圮
楽
堀
1852
408
sat
1857
378
422
膘
705
噗
347
start
486
锹
505
杼
酊
same
376
white
挎
箸
郗
垌
sa
溏
martin
蔫
偻
364
妫
飚
625
601
辔
濬
666
ds
瑄
621
觚
5600
nhk
415
express
铍
bit
跚
9mm
翕
煊
these
50mm
gpu
b6
hip
耄
铋
篦
zhou
阇
骛
nvidia
莪
吲
youtube
唁
870
箧
503
tm
8500
really
珅
潋
迨
哽
without
砦
model
缗
hey
謇
呸
mrna
垓
糍
park
wap
璠
妣
狎
攥
396
闇
york
蛉
瑁
joe
腼
蹒
great
review
200mg
chris
www
嶷
online
莠
沤
哚
475
遑
v1
such
跺
膦
蹿
unix
hard
40cm
50cm
nothing
郫
zhao
玳
ma
boy
埚
url
432
network
aaaa
衿
371
try
醪
full
挹
raid
bg
绡
汜
digital
mb
c1
坩
ccc
旃
5200
607
itunes
powerpoint
鸨
between
407
翈
1842
1844
435
838
抡
chemistry
team
party
die
晞
place
care
盥
藁
蓖
383
cv
臊
made
state
465
羰
388
1620
sas
楝
噱
ji
饽
苌
soho
褓
佶
mp
581
years
1260
1680
hop
稜
瞠
仡
25mm
605
423
341
363
374
627
text
development
518
伉
襁
ug
change
713
涞
1849
蜇
抿
瑗
pda
418
un
line
958
孱
懑
416
von
373
淦
赝
core
dns
747
427
387
would
ipo
醌
551
缫
蠲
alt
嚓
鲷
湫
捋
1845
咩
裏
avi
犒
2050
墀
yeah
god
445
lesson
硐
蔸
399
758
pu
computer
456
钽
1847
麂
brown
store
蒡
鼹
绻
1821
錾
仃
515
篙
蕤
589
applied
737
930
c3
1841
铤
billboard
apec
槁
牖
螈
mary
俦
family
笄
color
啻
対
jsp
郤
next
iq
645
506
hbv
闼
a3
349
value
413
igg
411
426
醺
赍
檗
usa
裾
head
噫
掸
mike
箓
usb2
things
5800
5v
o2
妪
乂
蝈
砻
胍
220v
392
cba
397
535
idc
analysis
25mg
蜱
ti
2h
聃
雠
碚
椤
缯
昴
890
缱
祎
der
缬
ex
508
铙
cnc
pentium
孀
533
advanced
mpa
yl
笳
蘇
愆
685
榉
old
氙
call
alex
燹
撂
菽
583
箬
蛄
瘸
嬛
495
橐
could
60000
something
纡
刽
辂
hong
377
law
蒯
邨
1846
1550
r2
1837
赀
player
414
跸
phone
邙
hold
rgb
421
henry
2025
黟
409
磴
1815
mode
1843
闿
504
letters
1780
428
垟
389
t2
london
528
jpeg
嵯
钚
steve
跄
30min
527
潸
h2
35000
崴
eric
379
run
three
rf
left
455
恁
open
楮
556
bc
476
腧
458
plus
1812
1839
胨
b12
4d
芫
america
est
dream
碴
隰
杓
md
ya
global
436
15mm
2ml
貉
欹
sup3
侑
ea
鳜
910
ben
铄
椴
昇
醍
1020
798
midi
肓
features
lc
brian
akb48
缂
1835
test
铡
light
978
s1
1799
key
sim
1795
simple
energy
蹠
徂
west
725
body
豢
424
face
蒽
lin
805
1120
479
菡
bill
433
衲
阚
believe
brt
pa
last
芗
hu
sam
wei
adsl
602
mk
痍
玠
1832
523
晷
604
jj
468
淝
1560
鄯
ck
473
糗
耨
榧
394
940
eq
498
used
sc
胴
c2
蕈
screen
镬
635
鼾
431
education
wwe
摭
鸮
cl
5400
fpga
恚
419
実
asia
534
552
砝
100mm
pid
741
珣
under
603
寤
埙
mbc
tc
xxx
didn
478
mn
p1
锏
simon
ansi
438
hi
615
喟
蘅
骺
cell
捭
study
586
393
莜
should
xi
缶
f2
games
0g
1760
mini
johnson
jones
yes
锟
1825
叵
cm3
炷
1580
stay
675
another
6800
鲧
1736
ps2
胼
517
査
岬
2019
1640
rose
鹂
牯
珥
entertainment
448
und
496
莼
software
970
邠
5300
h1n1
488
da
眇
卟
変
20m
may
417
lady
galaxy
4100
惴
1789
846
801
渑
907
put
蚱
gone
606
t3
company
632
454
516
998
548
391
4700
瞌
ide
瘰
7200
佝
together
street
旸
626
衽
郅
奁
731
30mg
mvp
1370
60cm
12cm
魑
1828
628
everything
612
san
937
缛
2gb
lu
angel
20ml
576
颙
sony
790
press
镫
hall
簌
beautiful
豇
711
453
pm
姹
thing
442
邋
alpha
leave
暝
441
30mm
chapter
507
100000
526
directx
511
9cm
words
釐
619
洹
444
frank
咿
eyes
483
俳
522
蜊
醐
541
water
499
聩
non
bob
坻
532
757
545
毽
oo
喾
alone
scott
744
辋
river
zhu
倌
媪
蛳
滹
哙
nc
20g
阊
gs
queen
趸
1130
1645
祢
4mg
1814
girls
544
e1
籀
1210
1573
徼
ipv6
訾
髁
1a
jackson
砜
1836
les
4gb
撸
瓘
1790
缁
镓
sars
eps
519
sod
bp
1810
year
縻
sound
617
菀
1125
598
酢
桠
466
emc
撵
怏
429
1838
ready
渌
546
taylor
452
news
1180
568
2a
af
538
list
hot
1380
etc
1796
摞
mo
槲
levels
ht
浠
诜
魉
韫
daniel
亓
盤
pv
瑭
魍
1831
emi
襞
social
dreamweaver
爿
kbs
565
613
990
浃
樯
jb
讵
揩
physics
耋
帏
lng
崃
bs
457
enough
shy
521
596
ec
451
鸩
遢
turn
臃
available
4400
585
粿
1010
禳
hand
439
536
桫
link
side
earth
mx
髹
7m
482
诳
472
1140
707
622
wcdma
513
must
492
462
踉
40mg
948
cmax
郃
1320
v2
542
email
493
嗖
sup
讧
cnn
446
碁
17000
湎
30m
529
653
531
575
阏
sr
united
pm2
mt
媾
443
様
aac
806
哔
舸
vb
611
曩
821
gre
gl
cisco
忝
峁
掂
464
葳
487
437
including
715
鄄
558
both
谵
463
jim
608
m4
5100
彊
锴
war
郜
money
481
葖
1824
tnt
蓇
瓴
鳟
橼
5s
louis
434
鲇
邗
el
犄
秭
3900
records
view
chemical
1001
1mol
dance
668
dl
槭
缵
que
624
rt
1823
1805
005
1826
巯
sgs
user
龊
qc
狍
island
language
space
擞
saint
2n
pt
share
瞽
hotel
christian
557
栲
撅
2b
1801
447
1822
瑀
smt
hk
1834
戢
825
50ml
朓
逖
general
椹
nm
洺
cae
484
艏
wma
zn
苁
single
599
c4
滘
777
铧
侪
ocirc
1kg
684
豳
skf
12mm
489
hla
竦
貔
ld
being
562
圄
van
gm
688
655
special
呷
edition
1s
jiang
131108
514
1792
ncaa
1833
旄
遛
jr
program
656
467
ing
901
755
509
芈
kong
rp
砣
桷
audio
icp
happy
龌
done
疬
japan
ts
mit
p2
524
looking
miss
缟
582
洌
35mm
494
grand
跏
those
joseph
ctrl
547
1040
686
蝮
lp
cod
菰
sio2
txt
1770
1060
帑
767
north
fcc
怙
ester
718
story
edi
634
1360
豸
1660
lh
雩
1230
magic
誊
549
臬
4k
op
1662
651
镣
箇
616
title
sciences
25cm
踱
s2
t4
钍
648
100m
543
588
苫
554
蝽
r1
3mg
amino
1776
浯
609
772
ca2
vlan
469
500mg
単
road
亶
636
metal
device
40mm
囹
穑
1730
佻
1818
绌
12g
537
诔
pve
autodesk
477
v8
ray
gp
span
gc
size
716
鹬
ssl
crt
1670
925
髌
pn
1127
702
658
services
support
1802
蒌
coming
experience
nbc
鳏
631
638
ace
0cm
ems
9001
殄
yen
soc
ethyl
怛
tf
筌
刳
studies
theory
1030
578
radio
翮
卍
畹
471
704
because
1610
箜
save
燔
赳
553
1809
篌
窨
翥
785
炅
钕
lett
803
1827
academy
ed
629
sf
pr
hill
explorer
future
food
莳
662
567
dcs
忖
戡
1086
1190
1829
bad
es
15m
order
spring
沢
south
497
025
move
狒
1630
圉
abb
449
learn
l0
d2
5d
wav
琯
邰
cis
quality
odm
926
acta
root
smart
1661
苾
cm2
photos
l2
via
sk
犸
623
邡
feeling
572
郏
襦
python
bmw
888
guo
epa
williams
沆
813
bot
read
function
wilson
1723
enterprise
玟
50hz
s26
fire
engineer
tony
1819
濉
rh
洎
莨
氘
pb
咛
1720
佺
1460
815
cbs
腩
beta
鳔
1735
yan
1gb
x2
剜
秕
牝
芨
din
関
del
sms
649
pal
1369
far
maya
654
拊
812
595
竑
50m
圹
close
eos
颡
1420
6300
1816
wrong
break
573
765
file
friend
002
摺
683
nx
沩
蜉
please
1170
ro
6400
筚
nick
acm
愔
ati
point
肟
766
俶
fast
ata
d1
678
geforce
1710
yahoo
堃
绉
mysql
1793
奭
gap
iso14000
uk
astm
h2o
n2
film
method
1804
罅
so2
嗳
665
adam
uc
蜢
1806
1775
photo
疠
474
image
200mm
sure
561
帔
髡
643
黥
1813
proceedings
褛
柰
beyond
royal
else
eda
808
ddr
gif
鏊
l1
痼
571
waiting
堞
code
652
rss
learning
嗝
461
beijing
娉
566
577
708
1520
689
kevin
human
661
539
875
1811
ssci
6600
戕
587
735
3s
铱
耜
觥
867
镒
584
呓
1522
904
case
1101
491
1080p
history
蒹
栱
im
564
f4
卮
琚
salt
jason
rohs
12v
hydroxy
逦
modem
font
酩
蓍
cry
65536
health
虺
1798
tonight
small
谠
1570
1220
jane
against
597
751
459
bd
鼋
焗
udp
process
1070
1807
children
8g
eb
62mm
22000
add
1440
褴
rm
25g
ccedil
706
714
5l
砒
赧
蛏
709
蚬
1530
瘕
5h
559
jay
iga
020
fall
scsi
顗
isdn
death
563
today
愠
dvi
勣
wait
1642
飕
徳
滢
琇
鳙
db
瞟
尻
force
400mg
澶
荽
舐
arts
ha
east
lost
effects
1628
album
harry
633
dark
public
2250
soul
826
659
exo
侂
733
se
黼
icu
4h
market
潟
7800
绂
瘗
ngc
1794
crazy
蓥
竽
濞
igm
scdma
6200
cb
835
699
骖
偁
bmp
809
1270
oled
応
1160
1621
锜
g3
ova
cheng
614
匏
thinkpad
赑
fps
create
kim
讦
1480
诨
1540
rev
1v1
罘
fans
巖
1740
ag
嫘
1649
ps3
908
颀
g1
703
岿
v3
虻
936
fl
c2c
罴
environmental
paris
594
hear
囗
jump
communications
溆
talk
噤
824
骝
003
咂
695
728
e2
nec
iptv
1797
kelly
500ml
锛
721
rc
1808
ldl
1240
槊
radeon
676
啕
tang
plant
50g
驽
professional
凇
698
s36
lord
search
alan
籴
pd
1403
硖
1791
816
1636
3h
gsp
811
sky
1632
铯
christmas
怿
笥
matter
574
噙
倨
effect
647
779
1803
657
sorry
awards
igbt
pwm
坭
醅
sos
976
592
滏
10min
682
cs3
悻
did
mater
579
聒
1724
feng
low
mhz
836
722
枥
726
昺
bank
memory
rap
975
663
ips
酆
2kg
787
簟
睇
轫
溱
骢
榘
642
珺
跹
677
series
nlp
raquo
蚶
stone
1672
1817
1646
827
驺
ko
security
perfect
alexander
746
tt
check
804
饧
15mg
sir
moon
doesn
591
inside
tim
672
641
噼
儆
1w
氚
646
哧
1783
旒
鸬
1648
夥
ev
1688
score
standard
玦
723
貅
揄
戗
fx
938
璩
fu
1654
剐
010
cpi
垴
蘼
hz
1521
1067
727
ah
lv
916
裒
639
han
躅
1715
唳
form
second
嗑
荦
674
霈
jin
缦
啭
pi
1788
rx
隈
gao
sdk
zheng
悫
745
href
593
ngo
multi
d3
彀
637
1276
悭
found
jis
5700
焓
1234
80cm
磔
aim
1778
蓊
act
569
xiao
郾
717
786
return
5min
1582
etf
1590
action
1625
sarah
yourself
枧
鹚
10kg
80000
検
775
818
stephen
gui
屃
644
9500
v6
馑
wlan
hs
2048
area
1616
andrew
8226
6mg
1567
1763
1470
嗲
pps
铟
rca
pierre
687
null
manager
738
sdh
828
薤
60g
300mg
jun
1685
favorite
making
playing
summer
754
692
涔
樗
664
忾
収
绺
945
h2s
bis
self
300mm
烊
opengl
912
acute
螫
黩
996
magazine
edward
su
elisa
hdl
cyp3a4
鞫
foundation
alice
ddr3
915
923
tbs
andy
field
date
transactions
limited
during
1126
鲠
1057
fan
嘭
缣
845
681
rw
mean
1566
become
economic
852
johnny
蒺
unique
黒
tu
boys
1330
885
getting
cj
1072
nh
ne
band
cool
724
771
骘
氖
content
842
镝
俅
谮
te
9600
drive
phenyl
1275
屦
cao
menu
823
摁
氪
蘧
active
sb
appl
988
1622
伝
1725
zero
1008
3kg
腠
叡
hit
鲂
mi
0kg
748
lite
enjoy
local
789
続
1506
seen
s3
1765
european
讣
gold
1279
736
965
pl
button
耷
1430
986
763
toefl
燊
鸷
jimmy
dota
955
861
猊
732
xbox
days
dan
673
833
囡
崤
4c
economics
23000
agent
html5
points
ryan
shi
砬
湜
reading
918
mine
adc
917
1592
1781
翚
峯
909
once
exchange
choose
current
symbian
ts16949
dave
machine
鲎
qos
蕖
1785
9m
cia
until
cs4
759
f3
903
24000
968
8mg
lewis
鹈
凼
snh48
866
泫
荑
黻
牂
1722
鄣
篑
ho
1110
1784
髭
陬
寔
dt
shanghai
疴
邽
987
45000
1042
喏
彖
sl
saas
814
28000
a5
彘
赟
819
foxpro
shit
822
盹
诮
鸫
per
does
150mm
products
camp
select
capital
茕
corporation
26000
铖
954
dd
闩
string
page
ba
671
読
782
鄜
漈
盍
dlp
729
甭
愎
outlook
wii
ue
1787
festival
communication
channel
gary
1755
1774
8600
copy
150mg
魃
dragon
1056
c5
炆
track
hdpe
liang
鍊
1800mhz
1619
蛐
995
21000
薜
win
1394
1786
rain
楯
table
鲀
逡
itu
applications
mmorpg
嘞
s7
696
侔
1069
觇
lbs
0mg
car
wave
糸
踮
狷
1552
1627
latest
step
886
761
菘
783
寳
esp
扃
865
jazz
k1
fine
child
kind
anna
60mg
997
maria
nk
792
raw
late
soa
905
cai
ttl
delphi
prince
1340
禊
synthesis
喑
rmb
miller
patrick
933
running
50kg
1398
ast
752
location
dead
塍
chateau
allows
forget
tg
921
栝
5w
kiss
1690
691
arthur
瓿
index
csa
rmvb
msc
廨
cas
known
h1
tj
j2ee
asian
841
1227
g20
cross
cos
ntilde
719
貘
dnf
california
france
modern
pacific
769
1066
turbo
753
795
669
1764
868
馕
僰
union
1772
2150
1063
哏
double
fight
858
math
bo
瑷
men
sea
6700
sem
697
疎
882
note
qi
uml
902
1637
tp
1290
1085
776
蝣
怵
阃
dps
1687
弢
镲
hcl
al2o3
js
auto
螅
1683
v5
culture
935
吖
edge
碲
voice
1007
bridge
855
008
夼
茌
battle
嗬
靺
dp
ae
1090
895
1012
1162
bi
778
髀
1575
pcm
15min
1598
铊
secret
739
200m
6h
matt
谡
card
mic
癔
ecu
16mm
984
镠
5km
dhcp
1753
巻
秾
living
gn
1643
framework
菪
679
赜
1782
four
铈
1777
british
shell
santa
yuan
20ma
fly
927
qu
nds
qaq
bar
髙
arp
1667
1773
693
main
鲳
1510
1002
2022
cdna
box
珰
100km
004
畋
bring
泅
959
hpv
makes
cmv
鲅
tmd
1762
854
泚
ghost
short
mcu
1768
cat
963
1757
1206
1207
puzzle
793
central
859
飏
walter
60hz
anderson
1727
thought
屍
仨
864
molecular
856
dong
financial
1728
surface
g2
mf
葚
叻
solidworks
res
speed
1195
咻
ascii
1404
784
jeff
衩
1371
land
biology
1655
郄
otc
sio
1310
1605
蹩
mems
1618
m16
complete
industrial
acs
1603
kids
tour
u2
allen
1756
743
嬖
踽
davis
柽
鞨
65279
7600
30ml
957
0l
734
p450
956
ir
麴
500mm
casio
1038
roger
library
015
1652
薙
within
hands
874
ntsc
钇
whole
jq
氵
垆
post
sweet
wall
898
cs5
feo
9800
cms
1390
since
medical
犟
1492
罍
stand
justin
lake
i5
1729
bell
ruby
important
bout
images
lab
962
1759
rj
cache
nb
production
経
807
1771
doing
粜
tnf
ws
guide
bim
events
1626
1016
焜
performance
ra
zl
牀
1568
1647
埝
洧
1615
shift
788
shen
1588
60mm
覧
tuv
1673
electronic
mos
蓣
8kg
862
echo
1572
section
981
甯
sg
1664
understand
hsk
delta
x86
eap
block
1578
er
xl
蒐
馐
nox
畑
ib
trying
ann
1635
apache
naoh
12345
缑
礽
1624
694
瞋
1601
浍
983
773
1000m
someone
15kg
25m
847
袢
桕
1037
jerry
843
picture
919
e3
printf
3gs
marie
853
rj45
侩
913
896
lose
unicode
100cm
1711
charlie
詈
戸
1689
room
烝
beat
堌
伋
hplc
9300
110kv
nfc
倬
764
iis
圯
solo
碇
ef
round
chang
1366
781
1585
982
socket
df
892
1536
831
ren
6kg
4900
纰
object
forever
832
951
qr
1023
8800
4kg
磾
泔
1131
纮
蓁
971
building
1021
铗
939
弇
挲
crystal
艉
smtp
鱬
cims
fang
1265
trans
pan
1745
1604
泺
橛
817
796
袴
cosplay
1154
1189
749
794
1068
881
hc
hope
1410
couldn
1638
992
along
age
250mg
clear
aps
1631
1011
provides
1123
1701
36000
csf
韪
n1
works
籓
967
ptc
贶
1111
1651
棰
1726
sar
1666
qvga
hf
coreldraw
possible
趵
1629
943
marc
luo
樨
848
county
944
tb
dts
junior
vba
lot
傕
玕
毎
direct
839
繸
2350
774
劵
fsh
wmv
镧
秫
1094
osi
1602
邶
猞
dior
1766
1623
廛
栌
钲
镦
1607
psa
spss
xy
1769
cells
1465
1577
gon
send
vision
thinking
imf
嘏
carl
蝰
32000
bay
928
is09001
镏
20kg
淠
imax
novel
qt
1684
荇
逄
au
author
mod
80mm
1748
849
1612
yet
嘅
929
6l
karl
6100
students
gmat
myself
kate
jpg
979
1752
829
2450
914
876
祕
瑠
48h
mpv
1734
mis
1565
walk
941
1075
1235
natural
k2
977
炝
杪
4050
1669
p3
1004
fn
埴
1555
vmware
chloride
942
steven
1078
獬
966
1135
country
947
柢
捱
跣
887
涑
75mm
1278
1583
western
watch
撃
伢
堠
1045
12m
museum
1215
document
marketing
952
卽
猁
usb3
906
厣
physical
辏
1668
旆
agp
茆
1488
pg
乜
deep
1082
961
踯
1526
#
[
yam
lofter
##s
##0
##a
##2
##1
##3
##e
##8
##5
##6
##4
##9
##7
##t
##o
##d
##i
##n
##m
##c
##l
##y
##r
##g
##p
##f
pixnet
cookies
tripadvisor
##er
##k
##h
##b
##x
##u
##w
##ing
ctrip
##on
##v
llc
##an
##z
blogthis
##le
##in
##mm
##00
ig
##ng
##us
##te
##ed
ncc
blog
##10
##al
##ic
##ia
##q
##ce
##en
##is
##ra
##es
##j
##cm
tw
##ne
##re
##tion
pony
##2017
##ch
##or
##na
cafe
pinterest
pixstyleme3c
##ta
##2016
##ll
##20
##ie
##ma
##17
##ion
##th
##st
##se
##et
##ck
##ly
web885
##ge
xd
##ry
##11
0fork
##12
##ter
##ar
##la
##os
##30
##el
##50
##ml
tue
posted
##at
##man
##15
ago
##it
##me
##de
##nt
##mb
##16
##ve
##da
##ps
##to
https
momo
##son
##ke
##80
ebd
apk
##88
##um
wiki
brake
mon
po
june
##ss
fb
##as
leonardo
safari
##60
wed
win7
kiehl
##co
##go
vfm
kanye
##90
##2015
##id
##ey
##sa
##ro
##am
##no
thu
fri
##sh
##ki
comments
##pe
##ine
uber
##mi
##ton
wordpress
##ment
win10
##ld
##li
gmail
##rs
##ri
##rd
##21
##io
##99
paypal
policy
##40
##ty
##18
##01
##ba
taiwan
##ga
privacy
agoda
##13
##ny
##24
##22
##by
##ur
##hz
##ang
cookie
netscape
##ka
##ad
nike
survey
##016
wikia
##32
##017
cbc
##tor
##kg
##rt
##14
campaign
##ct
##ts
##ns
##ao
##nd
##70
##ya
##il
##25
0020
897
##23
hotels
##ian
6606
##ers
##26
##day
##ay
##line
##be
talk2yam
yamservice
coco
##dy
##ies
##ha
instagram
##ot
##va
##mo
##land
ltxsw
##ation
##pa
##ol
tag
##ue
##31
oppo
##ca
##om
chrome
##ure
lol
##19
##bo
##100
##way
##ko
##do
##un
##ni
herme
##28
##up
##06
##ds
admin
##48
##015
##35
##ee
tpp
##ive
##cc
##ble
##ity
##ex
##ler
##ap
##book
##ice
##km
##mg
##ms
ebay
##29
ubuntu
##cy
##view
##lo
##oo
##02
step1
july
##net
##ls
##ii
##05
##33
step2
ios9
##box
##ley
samsung
pokemon
##ent
##les
s8
atom
##said
##55
##2014
##66
adidas
amazon
##ber
##ner
visa
##77
##der
connectivity
##hi
firefox
skip
##27
##ir
##61
##ai
##ver
cafe2017
##ron
##ster
##sk
##ft
longchamp
ssd
##ti
reply
##my
apr
##ker
source
##one
##2013
##ow
goods
##lin
##ip
##ics
##45
##03
##ff
##47
ganji
##nce
##per
faq
comment
##ock
##bs
##ah
##lv
##mp
##000
melody
17life
##au
##71
##04
##95
##age
tips
##68
##ting
##ung
wonderland
##ction
mar
article
##db
##07
##ore
##op
##78
##38
##ong
##73
##08
##ica
##36
##wa
##64
homemesh
##85
##tv
##di
macbook
##ier
##si
##75
##ok
goris
lock
##ut
carol
##vi
##ac
anti
jan
tags
##98
##51
august
##86
##fs
##sion
jordan
##tt
##lt
##42
##bc
vivi
##rry
##ted
##rn
usd
##t00
##58
##09
##34
goo
##ui
##ary
item
##pm
##41
##za
##2012
blogabstract
##ger
##62
##44
gr2
asus
cindy
##hd
esc
##od
booking
##53
fed
##81
##ina
chan
distribution
steam
pk10
##ix
##65
##91
dec
##ana
icecat
00z
##46
##ji
##ard
oct
##ain
jp
##ze
##bi
cio
##56
h5
##39
##port
curve
##nm
##dia
utc
12345678910
##52
chanel
##and
##im
##63
vera
vivo
##ei
2756
##69
msci
##po
##89
##bit
##out
##zz
##97
##67
opec
##96
##tes
##ast
##ling
##ory
##ical
kitty
##43
step3
##cn
win8
iphone7
beauty
##87
dollars
##ys
##oc
pay
##2011
##lly
##ks
download
sep
##board
##37
##lan
winrar
##que
##ua
##com
ettoday
##54
##ren
##via
##72
##79
##tch
##49
##ial
##nn
step4
2765
gov
##xx
mandy
##ser
copyright
fashion
##ist
##art
##lm
##ek
##ning
##if
##ite
iot
##84
##2010
##ku
october
##ux
trump
##hs
##ide
##ins
april
##ight
##83
protected
##fe
##ho
ofo
gomaji
march
##lla
##pp
##ec
6s
720p
##rm
##ham
##92
fandom
##ell
info
##82
sina
4066
##able
##ctor
rights
jul
##76
mall
##59
donald
sodu
##light
reserved
htm
##han
##57
##ise
##tions
##shi
doc
055
##ram
shopping
aug
##pi
##well
wam
##hu
##gb
##93
mix
##ef
##uan
bwl
##plus
##res
##ess
tea
hktvmall
##ate
##ese
feb
inn
nov
##ci
pass
##bet
##nk
coffee
airbnb
##ute
woshipm
skype
##fc
##www
##94
##ght
##gs
##ile
##wood
##uo
icon
##em
says
##king
##tive
blogger
##74
##ox
##zy
##red
##ium
##lf
nokia
claire
##ding
november
lohas
##500
##tic
##cs
##che
##ire
##gy
##ult
january
ptt
##fa
##mer
pchome
udn
##time
##tte
garden
eleven
309b
bat
##123
##tra
kindle
##ern
xperia
ces
travel
##ous
##int
edu
cho
##car
##our
##ant
rends
##jo
mastercard
##2000
kb
##min
##ino
##ris
##ud
##set
##her
##ou
taipei
##fi
##ill
aphojoy
december
meiki
##ick
tweet
##av
iphone6
##dd
views
##mark
##ash
##ome
koreanmall
##ak
q2
##200
mlb
##lle
##watch
##und
##tal
##less
4399
##rl
update
shop
##mhz
##house
##key
##001
##hy
##web
##2009
##gg
##wan
##val
2021
##ons
doi
trivago
overdope
##ance
573032185
wx17house
##so
audi
##he
##rp
##ake
beach
cfa
ps4
##800
##link
##hp
ferragamo
##eng
##style
##gi
i7
##ray
##max
##pc
september
##ace
vps
february
pantos
wp
lisa
jquery
offer
##berg
##news
fks
##all
##rus
##888
##works
blogtitle
loftpermalink
ling
##ja
outlet
##ea
##top
##ness
salvatore
##lu
swift
##ul
week
##ean
##300
##gle
##back
powered
##tan
##nes
canon
##zi
##las
##oe
##sd
##bot
##world
##zo
top100
pmi
##vr
ball
vogue
ofweek
##list
##ort
##lon
##tc
##of
##bus
##gen
nas
##lie
##ria
##coin
##bt
nata
vive
cup
##ook
##sy
msg
3ce
##word
ebooks
r8
nice
months
rewards
##ther
0800
##xi
##sc
gg
blogfp
daily
##bb
##tar
##ky
anthony
##yo
##ara
##aa
##rc
##tz
##ston
gear
##eo
##ade
##win
##ura
##den
##ita
##sm
png
rakuten
whatsapp
##use
pad
gucci
##ode
##fo
chicago
##hone
io
sogo
be2
##ology
cloud
##con
##ford
##joy
##kb
##rade
##ach
docker
##ful
##ase
ford
##star
edited
##are
##mc
siri
##ella
bloomberg
##read
pizza
##ison
##vm
node
18k
##play
##cer
##yu
##ings
asr
##lia
step5
##cd
pixstyleme
##600
##tus
tokyo
##rial
##life
##ae
tcs
##rk
##wang
##sp
##ving
premium
netflix
##lton
##ple
##cal
021
##sen
##ville
nexus
##ius
##mah
tila
##tin
resort
##ws
p10
report
##360
##ru
bus
vans
##est
links
rebecca
##dm
azure
##365
##mon
moto
##eam
blogspot
##ments
##ik
##kw
##bin
##ata
##vin
##tu
##ula
station
##ature
files
zara
hdr
top10
s6
marriott
avira
tab
##ran
##home
oculus
##ral
rosie
##force
##ini
ice
##bert
##nder
##mber
plurk
##sis
00kg
##ence
##nc
##name
log
ikea
malaysia
##ncy
##nie
##ye
##oid
##chi
xuehai
##1000
##orm
##rf
##ware
##pro
##era
##ub
##2008
8891
scp
##zen
qvod
jcb
##hr
weibo
##row
##ish
github
mate
##lot
##ane
##tina
ed2k
##vel
##900
final
ns
bytes
##ene
##cker
##2007
##px
topapp
helpapp
14k
g4g
ldquo
##fork
##gan
##zon
##qq
##google
##ism
##zer
toyota
category
##labels
restaurant
##md
posts
##ico
angelababy
123456
sports
candy
##new
##here
swissinfo
dram
##ual
##vice
##wer
sport
q1
ios10
##mll
wan
##uk
x3
0t
##ming
e5
##3d
h7n9
worldcat
##vo
##led
##580
##ax
##ert
polo
##lr
##hing
##chat
##ule
hotmail
##pad
bbq
##ring
wali
2k
costco
switch
##city
philips
##mann
panasonic
##cl
##vd
##ping
##rge
##lk
css3
##ney
##ular
##400
##tter
lz
##tm
##yan
##let
coach
##pt
a8
follow
##berry
##ew
##wn
##og
##code
##rid
villa
git
r11
##cket
error
##anonymoussaid
##ag
##ame
##gc
qa
##lis
##gin
vmalife
##cher
wedding
##tis
demo
bye
##rant
orz
acer
##ats
##ven
macd
yougou
##dn
##ano
##urt
##rent
continue
script
##wen
##ect
paper
##chel
##cat
x5
fox
##blog
loading
##yn
##tp
kuso
799
vdc
forest
prime
ultra
##rmb
square
##field
##reen
##ors
##ju
##air
##map
cdn
##wo
m8
##get
opera
##base
##ood
vsa
##aw
##ail
count
##een
##gp
vsc
tree
##eg
##ose
##ories
##shop
alphago
v4
fluke62max
zip
##sta
bas
##yer
hadoop
##ube
##wi
0755
hola
##low
centre
##fer
##750
##media
##san
##bank
q3
##nge
##mail
##lp
client
event
vincent
##nse
sui
adchoice
##stry
##zone
ga
apps
##ab
##rner
kymco
##care
##pu
##yi
minkoff
annie
collection
kpi
playstation
bh
##bar
armani
##xy
iherb
##ery
##share
##ob
volvo
##ball
##hk
##cp
##rie
##ona
##sl
gtx
rdquo
jayz
##lex
##rum
namespace
##ale
##atic
##erson
##ql
##ves
##type
enter
##168
##mix
##bian
a9
ky
##lc
movie
##hc
tower
##ration
##mit
##nch
ua
tel
prefix
##o2
##point
ott
##http
##ury
baidu
##ink
member
##logy
bigbang
nownews
##js
##shot
##tb
eba
##tics
##lus
spark
##ama
##ions
##lls
##down
##ress
burberry
day2
##kv
related
edit
##ark
cx
32gb
g9
##ans
##tty
s5
##bee
thread
xr
buy
spotify
##ari
##verse
7headlines
nego
sunny
dom
positioning
fit
##tton
alexa
##ties
##llow
amy
##du
##rth
##lar
2345
##des
sidebar
site
##cky
##kit
##ime
##009
season
##fun
gogoro
a7
lily
twd600
##vis
##cture
friday
yi
##tta
##tel
##lock
economy
tinker
8gb
##app
oops
##right
edm
##cent
supreme
##its
##asia
dropbox
##tti
books
##tle
##ller
##ken
##more
##boy
sex
##dom
##ider
##unch
##put
##gh
ka
amoled
div
##tr
##n1
port
howard
##tags
ken
##nus
adsense
buff
thunder
##town
##ique
##body
pin
##erry
tee
##the
##013
udnbkk
16gb
##mic
miui
##tro
##alk
##nity
s4
##oa
docomo
##tf
##ack
fc2
##ded
##sco
##014
##rite
linkedin
##ada
##now
##ndy
ucbug
sputniknews
legalminer
##ika
##xp
##bu
q10
##rman
cheese
ming
maker
##gm
nikon
##fig
ppi
jchere
ted
fgo
tech
##tto
##gl
##len
hair
img
##pper
##a1
acca
##ition
##ference
suite
##ig
##mond
##cation
##pr
101vip
##999
64gb
airport
##over
##ith
##su
town
piece
##llo
no1
##qi
focus
reader
##admin
##ora
false
##log
##ces
##ume
motel
##oper
flickr
netcomponents
##af
pose
##ound
##cg
##site
##iko
con
##ath
##hip
##rey
cream
##cks
012
##dp
facebooktwitterpinterestgoogle
sso
shtml
swiss
##mw
lumia
xdd
tiffany
insee
russell
dell
##ations
camera
##vs
##flow
##late
classic
##nter
##ever
##lab
##nger
qe
##cing
editor
##nap
sunday
##ens
##700
##bra
acg
sofascore
mkv
##ign
jonathan
build
labels
##oto
tesla
moba
gohappy
ajax
##test
##urs
wps
fedora
##ich
mozilla
##480
##dr
urn
##lina
grace
##die
##try
##ader
elle
##chen
price
##ten
uhz
##ough
##hen
states
push
session
balance
wow
##cus
##py
##ward
##ep
34e
wong
prada
##cle
##ree
q4
##ctive
##ool
##ira
##163
rq
buffet
e6
##ez
##card
##cha
day3
eye
##end
adi
tvbs
##ala
nova
##tail
##ries
##ved
base
##ways
hero
hgih
profile
fish
mu
ssh
##wd
click
cake
##ond
pre
##tom
kic
pixel
##ov
##fl
product
6a
##pd
dear
##gate
yumi
##sky
bin
##ture
##ape
isis
nand
##101
##load
##ream
a6
##post
##we
zenfone
##ike
gd
forum
jessica
##ould
##ious
lohasthree
##gar
##ggle
##ric
##own
eclipse
##side
061
##other
##tech
##ator
engine
##ged
plaza
##fit
westbrook
reuters
##ily
contextlink
##hn
##cil
##cel
cambridge
##ize
##aid
##data
frm
##head
butler
##sun
##mar
puma
pmid
kitchen
##lic
day1
##text
##page
##rris
pm1
##ket
trackback
##hai
display
##hl
idea
##sent
airmail
##ug
##men
028
##lution
schemas
asics
wikipedia
##tional
##vy
##dget
##ein
contact
pepper
##uel
##ument
##hang
q5
##sue
##ndi
swatch
##cept
popular
##ste
##tag
trc
##west
##live
honda
ping
messenger
##rap
v9
unity
appqq
leo
##tone
##ass
uniqlo
##010
moneydj
##tical
12306
##m2
coc
miacare
##mn
tmt
##core
vim
kk
##may
target
##2c
##ope
omega
pinkoi
##rain
##ement
p9
rd
##tier
##vic
zone
isofix
cpa
kimi
##lay
lulu
##uck
050
weeks
##hop
##ear
eia
##fly
korea
boost
##ship
eur
valley
##iel
##ude
rn
##ena
feed
5757
qqmei
##thing
aws
pink
##ters
##kin
board
##vertisement
wine
##ien
##dge
##tant
##twitter
##3c
cool1
##012
##150
##fu
##iner
googlemsn
pixnetfacebookyahoo
x7
##uce
sao
##ev
##file
9678
xddd
shirt
##rio
##hat
givenchy
bang
##lio
monday
##abc
ubuntuforumwikilinuxpastechat
##vc
##rity
7866
##ost
imsean
tiger
##fet
dji
##come
##beth
##aft
##don
3p
emma
##khz
x6
##face
pptv
x4
##mate
sophie
##jing
fifa
##mand
sale
inwedding
##gn
##mmy
##pmlast
nana
##wu
note7
##340
##bel
window
##dio
##ht
##ivity
domain
neo
##isa
##lter
5k
f5
##cts
ft
zol
##act
mwc
nbapop
eds
##room
previous
tomtom
##ets
5t
chi
##hg
fairmont
gay
1b
##raph
##ils
i3
avenue
##host
##bon
##tsu
message
navigation
fintech
h6
##ject
##vas
##firm
credit
##wf
xxxx
##nor
##space
huawei
plan
json
sbl
##dc
wish
##120
##sol
windows7
washington
##nsis
lo
##sio
##ym
##bor
planet
##wt
gpa
##tw
##oka
connect
##rss
##work
##atus
chicken
##times
fa
##ather
##cord
009
##eep
hitachi
##pan
disney
##press
wind
frigidaire
##tl
hsu
##ull
expedia
archives
##wei
cut
ins
6gb
brand
cf1
##rip
##nis
128gb
3t
##oon
quick
15058
wing
##bug
##cms
##dar
##oh
zoom
trip
##nba
rcep
aspx
080
gnu
##count
##url
##ging
8591
am09
shadow
##cia
emily
##tation
host
ff
techorz
##mini
##mporary
##ering
##next
cma
##mbps
##gas
##ift
##dot
amana
##ros
##eet
##ible
##aka
##lor
maggie
##011
##iu
##gt
1tb
articles
##burg
##iki
database
fantasy
##rex
##cam
dlc
dean
##you
path
gaming
victoria
maps
##lee
##itor
overchicstoretvhome
##xt
##nan
x9
install
##ann
##ph
##rcle
##nic
##nar
metro
chocolate
##rian
##table
skin
##sn
mountain
##0mm
inparadise
7x24
##jia
eeworld
creative
g5
parker
ecfa
village
sylvia
hbl
##ques
##onsored
##x2
##v4
##tein
ie6
##stack
ver
##ads
##baby
bbe
##110
##lone
##uid
ads
022
gundam
006
scrum
match
##ave
##470
##oy
##talk
glass
lamigo
##eme
##a5
wade
kde
##lace
ocean
tvg
##covery
##r3
##ners
##rea
##aine
cover
##ision
##sia
##bow
msi
##love
soft
z2
##pl
mobil
##uy
nginx
##oi
##rr
6221
##mple
##sson
##nts
91tv
comhd
crv3000
##uard
gallery
##bia
rate
spf
redis
traction
icloud
011
jose
##tory
sohu
899
kicstart2
##hia
##sit
##walk
##xure
500g
##pact
xa
carlo
##250
##walker
##can
cto
gigi
pen
##hoo
ob
##yy
13913459
##iti
mango
##bbs
sense
oxford
walker
jennifer
##ola
course
##bre
##pus
##rder
lucky
075
ivy
##nia
sotheby
##ugh
joy
##orage
##ush
##bat
##dt
r9
##2d
##gio
wear
##lax
##moon
seven
lonzo
8k
evolution
##kk
kd
arduino
##lux
arpg
##rdon
cook
##x5
five
##als
##ida
sign
##nda
##posted
fresh
##mine
##skip
##form
##ssion
##tee
dyson
stage
##jie
##night
epson
pack
##ppy
wd
##eh
##rence
##lvin
golden
discovery
##trix
##n2
loft
##uch
##dra
##sse
1mdb
welcome
##urn
gaga
##lmer
teddy
##160
##f2016
##sha
rar
holiday
074
##vg
##nos
##rail
gartner
gi
6p
##dium
kit
b3
eco
sean
##stone
nu
##np
f16
write
029
m5
##ias
##dk
fsm
52kb
##xxx
##cake
lim
ru
1v
##ification
published
angela
16g
analytics
##nel
gmt
##icon
##bby
ios11
waze
9985
##ust
##007
delete
52sykb
wwdc
027
##fw
1389
##xon
brandt
##ses
##dragon
vetements
anne
monte
official
##ere
##nne
##oud
etnews
##a2
##graphy
##rtex
##gma
mount
archive
morning
tan
ddos
e7
day4
factory
bruce
##ito
guest
##lling
n3
mega
women
dac
church
##jun
singapore
##facebook
6991
starbucks
##tos
##stin
##shine
zen
##mu
tina
request
##gence
q7
##zzi
diary
##tore
##ead
cst
##osa
canada
va
##jiang
##lam
##nix
##sday
g6
##master
bing
##zl
nb40
thai
ln284ct
##itz
##2f
bonnie
##food
##lent
originals
##stro
##lts
##bscribe
ntd
yesstyle
hmv
##tment
d5
##pn
topios9
lifestyle
virtual
##ague
xz
##deo
muji
024
unt
##nnis
faq1
##ette
curry
##pop
release
##cast
073
##ews
5c
##stle
ios7
##ima
dog
lenovo
##r4
013
vornado
##desk
##ald
9595
##van
oil
common
##jy
##lines
g7
twice
ella
nano
belle
##mes
##self
##note
benz
##ova
##wing
kai
##hua
##rect
rainer
##unge
##0m
guestname
##uma
##kins
##zu
tokichoi
##price
##med
##mus
rmk
address
vm
openload
##group
##hin
##iginal
amg
urban
##oz
jobs
##public
##sch
##dden
##bell
hostel
##drive
##rmin
boot
##370
##fx
##nome
##ctionary
##oman
##lish
##cr
##hm
##how
francis
c919
b5
evernote
##uc
##3000
coupe
##urg
##cca
##uality
019
##ett
##ani
##tax
##rma
leonnhurt
##jin
ict
bird
notes
##dical
##lli
result
iu
ee
smap
gopro
##last
yin
pure
32g
##dan
##rame
mama
##oot
bean
##hur
2l
bella
sync
xuite
##ground
discuz
##getrelax
##ince
##bay
##5s
apt
##pass
jing
##rix
rich
niusnews
##ello
bag
##eting
##mobile
##ience
details
universal
silver
dit
private
ddd
u11
kanshu
##ified
fung
##nny
dx
##520
tai
023
##fr
##lean
##pin
##rin
ly
rick
##bility
banner
##baru
##gion
vdf
qualcomm
bear
oldid
ian
jo
##tors
population
##ernel
##mv
##bike
ww
##ager
exhibition
##del
##pods
fpx
structure
##free
##tings
kl
##rley
##copyright
##mma
orange
yoga
4l
canmake
honey
##anda
nikkie
dhl
publishing
##mall
##gnet
e88
##dog
fishbase
###
##[
。
！
？
!
?
；
:
;
-
(
)
/
+
"
_
…
~
=
'
%
&
·
*
@
\
]
—
～
^
>
丨
|
<
】
の
【
〔
〕
ー
★
’
$
{
}
‘
圸
駦
亴
浾
蓹
髏
燜
燞
燣
齀
訶
訂
齪
蕇
蕵
嚝
驨
碮
悓
悑
誱
誡
誝
誅
嵈
嵄
嘝
槨
槗
藈
藀
藪
藲
怈
笗
笧
烠
烢
烅
烐
銐
謾
謠
謆
錊
艃
艥
艬
錗
魹
媫
鈓
鈍
鈨
讍
唨
絞
櫅
櫛
櫒
櫯
嬌
嬂
嬚
嬯
嬵
稦
鎀
鎼
鎾
鎱
鎨
蠀
蠞
橃
橽
橢
橠
橩
鼆
緡
媀
媘
媶
窲
諧
顃
沀
錭
錇
袩
袦
袳
牨
籿
閫
閱
毜
毃
毢
戜
勪
勶
憅
褻
歽
歱
聀
聐
糴
妛
妰
饒
蹣
蹤
縥
逧
覓
覕
覍
剢
剆
罰
擆
擟
攌
雡
挾
軔
軕
軸
軴
琷
醦
醙
醏
蘣
蘲
蘱
摿
腵
腫
詜
翗
翹
墤
墽
璶
璽
璣
攁
溑
鲄
繥
駚
駁
鯯
臹
臔
駿
駺
堬
眱
僞
蜬
蜸
敮
靕
豄
螪
螒
佇
祽
鰠
曫
鰁
曊
賰
賈
賉
賑
欚
欖
俕
欪
筨
漣
萺
瞘
秴
秛
庘
餯
鑻
皉
皫
皨
皼
諫
鋁
蒫
諃
坾
硘
鴭
鴣
鴲
鴋
鴄
麩
帿
蔔
蔥
栶
嶑
熆
熶
熪
詬
詯
詔
榒
榏
鯉
噧
噮
噋
薘
騿
惂
惻
瀒
瀰
諺
諾
鋍
鋌
崳
嗇
鮺
篺
篵
寲
諩
曍
岓
岤
曇
鮇
炨
炋
譙
檜
啛
謺
孍
孎
孡
涄
穦
懗
懪
尯
茥
紻
樺
竍
竬
慄
嫵
厺
厇
厏
厒
鄁
鍤
鍯
鍁
綇
綨
綬
躴
殏
殧
礯
婃
莥
鷡
莌
鷼
鷻
畘
頱
爉
匛
裗
簢
簣
痮
馟
馴
馶
漲
劯
踲
襨
遾
粷
粡
鹹
奙
憵
躦
躮
餥
釢
淭
釕
淾
淿
刏
觴
闙
脜
脙
脅
脌
搯
搇
搎
瓥
隵
壗
輞
輿
酁
羷
羻
羆
斂
塧
膭
睷
阠
阥
阷
滰
滷
滬
鬜
縇
攳
攼
鳼
鳵
攆
鞤
隸
鑒
隚
蝫
蝵
傠
伜
伆
纓
暺
暞
欽
貗
貧
霥
癬
癷
霌
濐
蟿
乫
乕
礗
礃
礏
趬
盁
盢
贆
贖
葋
垼
潰
鵬
鵚
枩
枽
趨
鐆
鐙
趃
幯
煯
圽
亄
亪
棇
鑲
浂
棴
蓗
朎
朠
砽
燭
齒
斺
齋
竕
齳
訣
訨
訊
蕓
蕦
蕿
嚕
嚽
駌
駋
碊
驓
碵
欰
嵀
灗
灹
嘾
嘆
藺
藸
怶
峀
峵
烡
烵
烾
銓
謲
銱
銿
謊
謁
銯
楨
艔
喅
宱
箃
魢
魬
魸
鈘
鈿
鈱
讕
屪
唙
絹
櫕
櫖
櫮
櫢
櫺
苸
飻
諿
鎧
蠌
蠇
蠟
蠬
蠿
橂
荕
緹
媹
窇
窩
骯
顟
袶
籌
籂
籲
菗
駫
娹
勡
邼
氞
歖
歑
聧
聇
糿
疺
饗
掚
蹗
罞
罜
錿
攨
鸙
擵
挳
琽
蘬
腗
腞
翉
墴
璴
璾
璉
陠
陯
轛
蚇
兘
繱
繌
繒
繚
駇
鼶
旀
旚
臅
韥
駤
韒
迉
迲
迬
僌
僗
僫
渵
敊
徱
徢
徥
靹
豍
豃
澿
澀
澑
螹
螐
螛
螊
佭
偮
偽
鰬
鰃
鰚
鰙
鰞
賘
俖
鱋
鱶
萇
鶁
晘
瞣
秨
庿
庂
梸
諣
梕
坹
硛
硆
鴬
鴢
焒
焝
焣
帪
帵
帾
囌
蔙
仢
磂
磼
杹
嶼
詣
詚
詂
詋
噾
薦
瀈
瀉
瀧
鋖
諦
鋲
鋥
椕
篐
篤
鮏
恎
恷
寴
鮴
鮵
炶
炃
譠
譟
譈
掅
瘔
啔
謬
芞
芁
謉
穔
穁
懳
懢
猤
豣
猍
猅
鏾
鏬
鏪
尡
紇
紌
紳
紴
竓
竎
慸
嫝
嫬
鍻
鍃
鍅
鍞
綁
婒
婛
鷱
畁
頕
頾
頽
郮
簈
簲
黋
黊
痵
痽
姦
釖
襎
襊
襧
犻
犚
汬
粓
粅
肞
躼
憡
瑐
揨
揓
釼
趈
瓔
瓇
瓏
捳
捚
捙
壉
虊
虜
酭
酑
羘
斣
塛
塖
辪
睞
睜
睈
蛽
縍
鳫
矵
鞱
鑭
鞇
鬸
鑏
谉
蝏
蝅
湒
鱡
鱢
彮
蒔
鄴
癅
癮
霘
癳
倃
憳
蟰
龣
礹
礊
廅
贋
潹
鵆
鉳
鐉
鐑
鐜
幆
煛
煱
亗
蓎
朚
朷
砙
砋
髨
燘
齸
齬
蕩
蕱
桘
碩
碸
釸
悀
悿
悡
誽
鄝
嘳
藮
藡
藽
怋
錰
笚
鯣
鯑
銔
銞
銇
謕
楌
艙
垘
魐
憆
魝
魞
魵
鈂
鈷
鈵
屗
屸
絛
櫀
愷
嬒
嬐
嬧
嬰
稓
珿
鎟
鎽
橊
咰
咓
緧
緱
媎
鼸
鼧
鼤
窢
顈
驏
牬
閃
籄
籱
訮
錳
毟
毠
毭
菳
戩
駶
娐
娞
甠
勛
氁
邏
氭
歝
麧
妼
疊
饻
蹆
剶
擏
雧
軪
醗
蘳
詢
摬
摢
龓
摌
摍
摗
腀
墊
璖
璓
埩
溛
溝
溮
兡
兞
繡
繩
繃
渾
蜌
敿
敜
靀
靌
豞
澲
澊
螷
螡
螤
偤
祪
隬
賗
弲
埬
詽
漽
萵
萈
秚
扟
扝
鑉
赼
梷
梥
梋
蒰
蒮
蒘
蒏
釧
麉
麍
鴪
鴱
鴊
鴅
鴁
鴑
柪
焹
拻
帺
蔅
栙
杛
杤
杸
熎
詵
镼
榢
霼
薓
薽
霻
筗
惁
惃
惍
瀃
瀨
諮
鋎
崰
椖
椧
鮿
篞
恞
鮱
鮭
炠
炐
譤
譥
譇
檈
瘚
啺
孾
芆
謘
懎
鬞
猣
猆
鏅
鏀
鏰
樄
樳
竐
竳
慛
嫍
玂
鍹
鍿
綒
殔
殩
呚
婰
鷋
拰
爐
匯
匞
簥
簽
扗
馦
馭
姛
鉯
釮
劆
踍
踚
犜
犐
遪
粌
鹷
奛
躾
餃
揊
刞
搝
瓗
隯
虇
羠
羦
斪
齂
斴
齽
斀
齫
斔
膔
辢
睶
棦
阞
儉
儨
韯
縈
縖
鳭
矆
鞷
皗
隫
鑔
隌
洖
蝔
蝕
伨
湇
纏
纗
鉂
販
癇
蟵
愋
鷬
鷎
盓
鴼
贕
葝
墳
趧
鐛
圢
鑶
亝
浝
髒
髚
髞
燱
燢
訤
訜
桗
碖
驠
驞
誺
誫
嘪
槶
槤
藒
藢
笎
鯴
笜
笖
峺
銜
艀
喗
箿
鈙
鈎
鈺
屶
獟
鑤
瓂
嬍
嬆
嬳
稬
稪
諹
鎍
蠗
橎
荲
媨
窡
驛
顀
顝
抋
沗
袕
籟
沊
毝
菮
菚
戵
戂
傭
娻
勴
氈
褜
褩
歞
歏
歶
歬
聶
聅
糔
糋
妽
掽
掑
蹃
蹥
蹧
蹳
涁
罷
攑
鸗
擛
雂
驙
蘒
蘕
摪
摤
龜
泎
翴
璼
忢
陎
轄
溂
蚅
兏
繷
繉
旇
鼨
臎
堹
眿
僋
僘
敽
侰
靊
豒
澰
澏
螼
鰪
鰔
賤
賌
欏
鱭
鶷
秳
秎
皔
鑈
赾
梞
梇
蒖
坸
硴
姴
鴩
跾
栚
磃
磇
貚
杚
杽
瞃
嶨
嶾
瞈
詸
詊
榓
鯘
鯏
筟
諜
侙
汻
椡
椣
篬
岼
炞
譳
譛
謸
孂
孉
孷
猦
鏉
鏶
紁
樎
樢
樷
竲
嫾
埞
衧
鍛
綉
綥
綺
綿
殙
婅
婱
畭
鷊
畒
郬
餔
匱
裚
鉔
痐
馻
姾
餩
劰
劎
踓
襽
犪
犌
汷
粐
粫
躤
觰
脺
搻
搑
搚
瓾
瓋
隀
庡
壣
壀
冹
輫
羀
膼
膿
膠
膐
辳
辬
睯
儖
儯
鉞
蛕
縮
縛
鞦
鑟
忇
擨
伳
湰
暛
暓
暃
霵
霯
侱
倇
濁
蟬
蟗
蟔
礸
礘
礄
礈
鷏
廩
葲
葃
禪
鵫
枾
蓙
巕
燌
燸
嚹
嚺
桰
焸
灦
槸
藃
怴
怺
笂
峷
峾
烲
烸
烉
烞
銦
謄
艵
喪
宒
箟
箌
箷
讄
獔
唴
唋
絆
絼
櫪
苉
飿
嬫
嬱
鎹
蠝
鼞
橨
緰
媋
顐
錼
牫
籗
閸
毴
菦
菨
勭
聙
饏
掃
蹨
涜
覵
剘
罓
鸄
擈
雦
挕
雗
驝
夳
蘮
摉
腢
腣
腏
墶
璑
璌
忚
轋
溊
溄
兙
兓
繗
旾
鼀
鼵
旘
臋
迃
堯
堫
堟
僁
敥
敪
徶
侺
靲
靤
靪
靅
豛
螶
鰢
湕
筂
俰
筺
鱫
鶟
晠
瞞
庣
扖
皣
梟
蒑
詇
硣
麜
柇
焇
跠
偋
蔮
仜
仾
磰
鯺
熼
熦
詏
榸
鯤
噡
噠
噄
薃
薞
霟
騹
騜
瀩
鋭
崏
嗂
舼
椱
篟
鮅
恈
恦
寵
炦
譋
檙
啠
謶
孇
謥
穪
懼
哹
茰
紤
紶
樬
颴
厑
衑
鍄
鍍
綛
綤
殻
呩
畻
頧
爛
郻
郀
匩
匎
餷
簛
簫
痶
痜
鉊
鉹
鉡
劶
襸
粊
趭
奪
肒
揘
揇
揁
餣
釟
觘
瓽
瓡
瓕
瓄
捹
捪
捈
壨
冟
酛
羏
塎
膉
睧
睉
儩
鳶
鞎
鞝
忊
伿
湷
暫
暡
暚
彂
彎
韖
癋
癑
倽
濧
濣
濽
飸
昿
昗
葾
垷
禷
枤
鐪
幁
圼
蓯
蓾
麮
髍
燛
燶
燲
閅
桳
桛
碬
悂
闖
誼
嵟
嵪
灖
槝
槈
藣
笌
笍
笁
銣
魪
魻
絠
蔖
櫁
飆
稁
鎐
橲
橵
緸
媐
窚
驟
顁
顡
顰
錶
籆
籭
駐
甮
勬
勳
勎
勞
狕
邌
褄
聠
聑
疛
覒
剱
攭
攐
挰
挬
雐
軲
夰
夽
凚
凁
摣
摥
翪
墲
轚
溭
蚸
蚈
筄
洡
韸
韷
眖
渿
渪
蜤
蜛
蜔
瞛
偧
鰿
瘽
賥
賿
埾
鱳
鱦
萕
鶔
晍
瞲
皏
皘
梺
乲
乧
諅
硦
姲
鴦
麣
焍
闢
帇
帎
帍
囆
囼
蔛
磆
磍
杒
嶘
嶣
嶱
镺
镾
噟
騪
惾
瀗
瀋
瀱
崲
崼
汿
椩
椯
鮂
曘
鮳
岴
譅
檆
檯
啂
謎
懸
猑
尵
哬
茽
紨
紭
樍
竔
竀
慩
嫞
衼
鍡
婦
預
頜
頥
匲
餴
裺
裮
簾
黀
釲
姍
劽
劕
犃
遱
汥
粆
撲
撉
奱
躙
躛
躥
憢
脦
搈
隁
捗
壧
壾
輰
虠
浗
羐
塪
塶
膱
膡
儾
矎
隢
鑗
谸
蝩
伂
彸
鄿
龥
倿
棞
愌
愘
昲
盽
葪
葞
趩
圱
圷
亃
蓵
朻
齝
訡
桽
灠
鯟
峹
謮
乊
魓
鈼
鈶
讑
獩
絗
苵
飼
愝
嬮
稝
稴
叺
叓
珁
栕
驣
蠈
蠫
蠻
橶
荢
鼰
鼺
鼣
抧
錪
錔
袧
袸
牭
閄
吘
籵
菬
菃
駠
娏
甈
甌
勏
狣
邷
氱
褗
褁
褽
褣
糃
糩
掋
蹫
逳
逫
逘
涾
鷣
攢
胉
軘
夵
琒
醶
翆
墥
璻
轈
溣
蚥
蚭
蚲
兤
兣
兝
兗
繹
鼿
堒
眻
眐
蜟
敡
徻
澢
澮
澕
螞
傓
祰
祣
曯
購
賟
弤
筁
欴
筪
萪
鶝
鶞
鶛
庩
鑂
鴻
鴓
柋
囶
嶯
嶡
嶹
鯝
噈
薔
騡
騛
惐
鋉
鋷
諎
嗠
汢
舋
椨
篏
篕
曎
炥
炚
炛
譁
檼
孄
芵
穛
鏏
哣
樇
樤
竱
慻
衻
鍷
綴
呧
簻
婝
畩
頚
頸
頿
拞
泟
匟
簱
耝
黬
黸
扴
鉣
劧
劷
劜
襲
犩
汅
汼
粁
鹝
雴
瑡
揱
觛
觪
脪
捓
輎
輺
虴
酜
斍
塷
膯
洔
睤
阫
儂
儎
儑
儶
滄
蛢
縒
矚
蝋
傊
傝
傘
傶
暙
彏
彋
貏
貇
龤
濱
濝
蟤
坈
礇
钀
葿
葥
潛
鵳
鵵
鵛
鵜
鐝
鐯
浶
棭
砨
髖
燗
棏
桇
闂
誵
誘
嵮
嵳
灓
槯
槦
乵
怾
笅
鯦
峂
銉
艍
艦
宖
箁
憜
鈯
讂
讛
屷
唖
巁
絋
絥
絳
櫘
愯
飵
嬏
嬤
嬼
叏
叐
橁
橭
侟
鼡
窉
沠
牰
菷
菄
傡
娔
娺
娧
勆
狹
狵
氜
褈
褼
褹
聣
聕
饊
覶
剈
罺
攗
挔
軒
夓
蘨
腅
翝
翤
璔
陓
轂
蚉
蚚
兯
兛
繴
繑
偂
祒
鰳
曉
賏
弡
鱩
鶮
鶨
秜
庰
扚
鑋
赲
赽
赹
梍
鋽
坕
乤
硲
鴾
柨
焵
闄
跿
帴
囸
磖
詮
薼
騌
瀊
瀳
瀪
椃
篊
篧
恖
恥
岇
譼
譝
檹
涀
懟
懙
鏙
鏇
鏧
瞗
茦
颯
慗
嫧
嫢
嫴
衏
衇
玴
綸
殝
婜
畝
鷒
郹
郖
餝
鉖
鉑
黫
痸
痻
扲
鉤
踜
犤
犈
撌
躍
瑋
釰
觲
觬
瓑
捰
斬
斻
垀
斈
斞
膗
辝
辴
睂
滊
縅
縏
鞊
忣
鑖
隇
貃
貱
癪
汙
侇
倲
蟼
蟐
蟝
礝
憰
麯
贁
潑
禯
鵤
圚
圅
蓌
砶
巈
閍
蕮
颵
誥
嵡
嵢
槹
槬
怑
怌
笣
峖
峔
峓
峊
楆
宑
箈
箳
衃
讅
獸
唘
愵
愇
飽
債
嬑
珗
橀
荾
緔
鼥
諠
顅
沑
沞
袃
牘
毞
毺
駷
錑
娾
疘
掓
涃
涰
覙
覽
剦
罤
琺
凜
蘟
蘝
摕
腪
翋
墏
轁
轃
鄇
蚞
鼝
臦
韀
韕
迶
韴
瑌
敐
澷
澻
螕
佨
鰮
鰷
簩
瘹
弴
俼
欯
黺
漞
鶶
瞊
鶓
秇
邭
鋑
梚
蒬
硺
硡
鴮
鴙
柛
焂
蔧
偳
熮
噊
薚
薭
鋞
諯
崨
舽
椦
椾
篻
恜
攇
審
譿
譫
譃
孈
芅
謈
穼
穭
鏆
鏺
哠
哯
茩
茣
紱
紺
厬
鍎
綜
綶
鷭
頃
爎
泀
匒
餁
釵
踿
犡
撍
躽
餀
釾
釣
淒
淣
刾
刉
觾
觠
搶
輄
輱
酟
斳
辭
睴
睮
睙
阣
儬
滜
蛨
縀
縎
矘
矊
鬫
忥
忀
蝁
湬
纙
龝
龒
癛
倹
礙
鷵
鷅
盄
盜
盿
廎
贒
垳
垥
潯
潣
禍
鵗
鐁
鐦
圿
髕
燯
閲
誸
藰
怽
笿
烑
銴
楈
艪
宯
魯
魱
獡
獿
獱
獊
獕
絬
櫡
櫴
愲
愸
嬓
稖
稄
稢
鎷
蠠
荴
緛
媉
媊
媬
顊
顨
袬
牽
籫
菤
駂
娝
勵
氉
糝
疄
饇
蹪
擾
雋
琑
凙
蘰
墿
兦
臫
臗
韰
迱
眑
僲
僼
渷
測
敠
澬
螑
螝
狾
偉
佦
曓
鰑
鰝
俒
筣
漊
漜
萀
鶭
鶾
鶑
鶙
蒆
硧
硥
麆
鴏
柖
焛
焏
拸
囻
杫
詳
詾
榲
霺
筫
惖
瀿
舚
舿
舦
椲
篈
篃
鮤
鉅
檓
謱
穤
懫
猽
鏒
鏣
竵
鲓
嫟
厜
玤
殶
殬
婸
泈
泏
匫
匷
顖
鉐
鉘
欈
黖
姰
踕
踾
遷
遈
遜
撫
挸
躳
秮
瓵
瓚
瓊
隿
壺
壔
鲝
酨
膓
辷
洘
儧
蛵
鬕
鑐
謧
貄
貳
摦
癴
倄
倵
濍
濜
蟸
礣
廽
廠
廀
葔
鵧
鐚
鐟
鐣
鐹
幗
圶
朄
巪
閚
蕠
嚛
嚇
嚶
桞
驐
誳
誦
誜
誏
藼
笡
鯋
謹
銡
楓
憑
憤
嬘
蠘
荰
緮
窏
窪
抣
抾
抁
顩
吀
籕
閛
毊
甐
勁
狜
狏
麡
聰
妔
妋
鸉
鸅
軟
拪
琟
蘛
摻
龞
腸
腝
腁
腂
翓
璤
璭
忂
蚏
蚗
兊
繨
臱
臩
迌
僠
蜦
蜵
徣
徝
徎
靯
靔
偣
鰦
埣
漺
鶅
晆
晿
秙
庴
瞮
扨
邜
鋶
蒚
乮
諀
鴌
焥
帒
囕
栛
磯
鯠
鯕
噅
騝
崥
攂
椫
椻
恗
寈
寚
岾
譂
啳
孞
鏞
尲
奮
紦
紷
樼
岋
慂
慔
岻
厛
鍋
綂
綑
殘
呍
婏
婯
莍
莏
鷪
畣
鋜
頗
泍
挄
泴
匧
匇
耲
黨
馲
馢
馪
姟
襓
擳
犅
汄
違
粰
撊
闅
揦
刢
刔
缽
瓍
捛
酀
塃
阦
儫
縤
矺
矌
鑡
谻
蝐
纋
暬
貁
貵
蒠
霐
癱
濭
蟘
礋
盵
葮
鐅
鑯
蓛
蓞
朼
燙
齻
註
蕍
蕟
桙
碷
誙
嵦
灷
藵
鯼
銈
謣
艗
喞
箼
魡
魧
鈌
屔
獋
獉
絟
苀
飁
愮
珬
珡
蠺
蠱
橗
緋
窙
袞
籪
毶
毻
菕
泦
歒
歎
逽
逪
胑
挮
雈
雓
蘌
腛
泋
翨
墑
璢
轐
旊
臥
韽
眪
蜠
蜙
侼
靏
豯
齣
鰰
鰴
俿
俲
埀
萗
鶽
秷
秡
瞱
庈
鑵
坥
硰
詌
鴀
焃
跈
跒
釘
囨
蔰
磛
磠
鯾
熋
榺
麳
薎
騻
騰
瀢
崵
嗿
嗊
霛
偼
曆
炾
鉵
鬁
懯
鏍
鏋
哻
紛
呄
頌
爍
郠
郥
郱
裞
裃
釳
襵
襷
犝
趤
憁
瑵
淎
損
瓬
瓝
捁
輲
浱
羈
塇
膸
膞
睕
儰
滼
棧
蛒
縺
矁
鞽
忴
忹
蝺
傦
纼
纉
纃
鉃
侷
濃
濖
礭
盰
廳
廦
趗
鄈
潐
鵮
鐊
鐢
煶
棎
棶
朜
砡
砐
髊
巤
燉
燰
訉
閺
蕜
誢
嵤
灲
灱
槄
藞
烌
銃
銄
楁
楏
媏
憛
魗
魤
魳
憱
唡
稇
珟
珚
珕
蠾
橍
荹
窽
袉
卙
牱
錥
毲
甊
褲
聁
糞
糷
妕
疉
覥
罌
罧
挩
驕
驈
琗
蘓
摼
詓
翄
陒
溸
繞
臰
韑
眰
眃
浨
渘
渄
渱
敱
敃
瞖
豈
螁
螌
偅
偖
佒
埁
欛
鱴
漡
萊
庮
邥
赯
蒥
蒒
坘
蔁
栬
仠
杔
熐
榵
鯚
薻
霗
騬
惥
鋠
嗋
椊
寙
岶
岮
炴
譱
譡
穻
懚
鏼
茐
竴
慲
厲
厃
殱
殾
婫
莗
畂
畓
頑
爮
匤
裄
裠
裧
簄
曻
襒
粙
粣
撴
肅
肁
躢
揙
餪
觓
脮
搷
搙
膷
鬍
滯
鬚
鳹
攍
矙
矄
隡
蝒
伅
鱑
鱰
暈
彫
貨
癐
霚
倱
蟦
昅
廗
贈
垖
潊
鵋
鐴
幣
棾
蓻
髶
蕛
碆
悐
嵥
灙
怰
笐
烣
銂
謓
艒
鈩
獶
獈
唩
絘
嬎
稰
橏
荶
鼅
咟
緷
錎
袲
牑
吜
傤
菛
駥
娦
褑
麘
歮
聸
鸈
胿
挭
雸
軯
凣
邚
蘯
蘻
蘿
摓
轠
溤
兇
繧
韏
堢
堗
敨
侳
豱
佱
祶
湥
鰫
鰊
弙
俧
筬
筽
秱
庎
鋺
坙
硱
硞
硄
麎
鴚
閕
跓
帣
蔏
栥
栮
磒
鯃
騈
崙
恔
曃
撔
譚
譐
譀
檚
啒
謯
孠
懝
懶
哘
茮
慏
厱
厼
玽
鍦
鍼
鍾
呹
婟
婋
婾
鷳
匉
扏
鉫
襺
遳
遙
粇
撡
撶
躰
淕
脋
搄
搟
瓨
瓪
瓙
捾
壽
壛
輡
虦
羒
齹
膖
膌
睏
儠
蛷
鳻
矤
鬠
傗
傼
暆
彺
彁
貢
飄
礎
鷷
鷐
垗
潻
鵱
枀
亙
砿
砊
巊
巸
訪
嚊
桻
碈
誀
嵃
嵹
嘕
藚
怘
笝
鯨
峟
銧
喢
箶
鈪
鈫
讝
屳
唽
飺
嬨
嬥
栣
鎖
鎴
窂
袊
菺
駮
狑
氻
聏
聟
妎
妴
饝
饢
覝
鸼
胮
洠
蘁
摶
腜
陣
轌
轷
鄬
溩
蚢
繵
繀
鱪
臒
韄
迼
堷
敘
敄
豅
螖
鰾
鰇
瘱
筕
漌
邩
皬
梮
邒
蔱
仒
栫
熢
榗
騱
騘
崅
崹
舤
恀
鹐
檧
芕
鬝
猶
鏴
尦
哶
哸
紮
樶
慖
衈
埍
玐
綘
綱
殈
畕
頙
簆
簝
譺
欇
痬
曪
襐
擯
擺
遲
撱
躟
揌
淃
淵
刯
孶
壥
輆
輖
虭
浽
羫
塮
膽
膲
睲
儊
滣
鬉
鬔
蛓
鬎
鞪
忓
忈
湵
纄
暿
鄼
貀
癠
蟚
飳
趏
廂
廁
贊
趻
鐖
鐗
幤
棥
浺
蓜
蓡
砱
巶
燓
桺
碒
嵣
怓
鯬
鯒
銸
艞
箂
魶
鈐
鈭
鈥
屖
獻
唒
櫉
櫗
愅
鎕
蠩
蠯
蠥
蠳
蠷
緀
媔
媰
袣
籃
歋
糆
鸖
雬
雵
琘
拀
醠
醕
蘶
蘉
蘜
翍
墇
陃
鼚
韹
敾
偡
祻
弞
俻
鶃
鶌
秼
赥
梹
梘
蒤
麔
鴔
焋
焪
帠
蔢
偔
栵
嶜
嶽
榟
鯞
噒
薕
舙
恱
寏
炢
譹
譑
譄
孆
懀
懻
懱
猭
鏩
紖
樌
樐
嫷
玬
畞
頪
爋
耚
簶
痑
姄
姯
姡
劃
襱
遻
汓
撀
曐
躗
躖
捇
葯
壓
輐
儢
滲
蛗
鳪
鞃
彉
貕
霧
濏
蟻
廢
掗
枆
煷
棗
朆
砪
嚿
碅
颲
誋
嵔
灪
槕
藫
怷
怸
鯛
銆
楲
喬
絧
苬
飉
愳
嬻
栨
鎬
蠂
橸
抍
沯
卥
籉
菣
娽
勫
糂
糱
疷
覸
罬
驡
挧
雞
夝
摚
翶
陖
陝
韌
眮
僟
敁
傁
齼
湽
鰜
賎
隱
鶪
鶀
瞜
皢
皽
鋢
硶
硳
焲
焺
囜
薑
薡
騆
嗧
嗀
椞
檢
謪
穖
穚
猠
鏮
衭
綩
殐
畍
爤
爃
匶
馰
馯
劋
踤
憿
餡
釀
觮
脄
隓
虂
浀
膥
縪
忛
隝
洍
傽
湸
湀
暢
鱃
彶
蒊
癵
濴
濗
礔
鷜
葟
丳
禿
鵃
鐽
幏
煹
圲
棢
棟
齊
訰
蕂
蕒
悎
闁
悹
灎
怚
烮
喡
喚
魒
憴
鈋
獹
唕
櫋
櫄
苆
飌
愶
鎙
荱
媥
驆
袔
勸
聮
饂
蹸
剙
軶
驅
摙
翭
轀
臸
迿
僐
蜳
蜏
敀
豩
豦
澾
螙
偩
偺
祳
弿
筡
漬
萅
秶
庫
鑽
皧
鋿
硑
柫
焑
拹
跍
帄
帋
帓
囄
仯
磟
磱
熚
詙
榳
噝
筞
侀
椈
篖
篶
恅
曤
寎
寣
寭
芀
懧
鏱
哅
樃
樜
竷
洓
鍂
呝
呞
呂
莁
頉
郼
裭
馣
粂
撐
肨
躘
挴
觃
脥
瓫
瓁
捸
輚
輑
虈
齃
膮
睰
儭
滐
蛥
矒
鞛
貪
蝭
貞
貶
癊
霃
濸
愄
昸
盳
钃
趞
葕
葌
禙
鑺
圥
巔
蕭
誇
嵍
嘙
烳
烍
銒
艌
喥
宎
魀
憐
屚
獵
唀
嬁
嬸
咊
骩
錖
閠
戄
娷
逩
雥
軞
軬
摷
陫
鄊
駒
臟
迠
渮
蜐
螴
祑
賖
欮
萲
萟
瞹
邤
鑌
鋼
鬮
囩
蔉
偯
仺
磄
嶺
嶵
鯹
鷑
詉
榯
薵
霠
瀶
諽
鋘
崣
椬
鮷
恮
寁
岆
譪
檕
懤
哰
紑
嫯
涥
鍢
綵
殕
呭
鷧
爩
郔
黆
黰
釶
姷
踃
襋
襹
瑪
挘
釺
觙
脈
捦
壦
壿
壜
酻
羺
蛧
鬧
忨
貫
濚
愡
趢
盪
廟
丒
垬
趛
幚
煾
浻
燅
燽
蕐
桿
悇
嵉
嵻
嘵
峬
謰
銷
楴
艐
獇
愜
荿
卆
籨
毄
毈
駍
狧
饡
逜
覻
剹
罵
鸋
攈
瘮
鄸
摮
溿
繠
韓
堾
堸
堖
眆
偙
鰏
漟
鱨
晭
梪
梄
蒃
鋧
柌
柦
柧
囒
仦
仹
嶊
熌
熰
騺
筍
惈
瀂
瀤
鋸
椔
椘
鮬
鮘
岎
岉
譯
孹
懁
懴
懩
殸
婹
莑
齺
鷹
頨
郍
餢
簚
馜
姏
姅
釯
踥
犿
躕
揰
揬
淗
趉
闛
搹
壘
輏
膁
睼
蛫
縱
鳿
攃
洆
礛
盷
潳
煼
煥
圤
棳
蓃
蓫
蓳
砎
砈
髗
巚
嚃
嚡
桋
碄
碤
誷
嵆
嵼
嘊
笰
峢
銾
喍
箻
魙
獄
苂
嬔
稘
叜
鎈
橾
緑
緢
顉
籢
娯
狅
歫
疧
掆
涆
逿
覛
剭
擋
軵
蘥
蘫
摳
翖
繬
駽
眫
眝
僯
渒
蜹
豐
豼
螔
佅
俥
俉
萓
鶊
扸
瞯
庪
蒶
鴖
骽
磤
鯽
熉
噴
鋣
鋪
範
岥
炗
譽
檌
懕
樀
綅
婂
鷨
頺
爥
裖
劀
汒
撹
憽
淊
缼
捵
浢
齱
塳
蛦
蛈
縫
矨
鞂
忟
忋
洦
傋
湠
纀
暯
暭
彙
霮
倫
礥
趡
垊
丣
幈
幓
煄
煭
圗
亂
棝
蓪
悙
誧
嵏
嵐
鯩
笓
峅
宊
魿
鈗
唚
櫊
嬄
嬠
嬽
叴
珢
珼
珻
蠽
媴
顜
抐
卛
吺
籏
岟
狊
狇
攅
胅
雿
軝
夡
溳
蚔
兾
織
鼑
鼜
臕
駾
韇
迡
堳
徾
侸
豏
豿
鰗
埱
欨
庽
皩
坖
焆
瞂
嶬
惀
惌
瀎
鋊
恄
鮑
檻
檰
謙
懜
尀
哴
樚
樓
竘
慞
骿
衉
莇
鷾
畡
爂
泧
耴
鉒
馤
鉮
襙
肵
躌
躒
瑖
瑓
揮
揚
搳
搃
捿
捬
浲
齛
膫
膟
膕
睻
滖
攩
伄
湹
湁
暜
癏
癗
霒
濌
鷤
葨
禐
禎
鐺
幑
圡
蓈
砏
燑
訷
閉
訁
蕼
桚
桒
嵱
笇
烗
乑
箤
箥
絾
苮
橉
緟
媍
窼
籦
籸
戱
甛
褏
妦
蹞
涶
剝
攕
夻
醜
醃
墖
鄍
兌
駣
迏
眣
蜲
敒
徔
澅
澖
萷
鶣
扂
蒼
坅
鴨
蔳
熕
鋚
嗕
寷
鮥
譻
檔
穐
涗
攎
穧
懭
鏂
樿
厞
衸
躈
綗
爗
餓
姠
踰
犕
撁
撎
撜
憞
奿
瑘
挋
脠
脟
輁
輘
阭
儀
鬀
鳮
伖
湪
蘐
貈
霋
倁
倸
濔
鄧
蟩
蟃
乢
礕
礟
鷚
鐕
煝
棿
蓩
朤
燆
燍
訦
嚁
嚮
桸
曭
嵵
嘼
嘗
笽
楰
屽
嬞
嬺
稟
鎒
蠍
蠰
橕
橤
咃
窹
傆
顄
顆
抰
袏
牅
吤
毷
娪
産
蹽
覞
鸏
軆
軜
軓
醱
蘹
陚
鄭
蚻
駊
韅
僓
蜽
洯
瘻
弒
鱔
漇
庌
皵
硂
跮
跙
帲
囐
栦
偵
瀖
鋾
寉
寪
曟
岰
譶
譨
岅
竆
竧
衒
鍨
殅
瑤
餶
黗
躆
瑩
刱
觗
闝
觷
脭
脫
瓎
羉
齵
塺
塴
塐
攷
鳺
擠
蝛
傂
濨
濿
礶
鷢
趒
鵅
枛
鐱
趓
煒
圛
棙
朖
巓
燒
斦
嚰
誻
灟
灇
銋
謍
謃
鼊
鈢
讘
獀
唂
蔤
櫐
櫔
嬣
珴
額
吂
戼
褯
歰
岯
掜
蹖
蹮
覤
攡
擉
熭
醷
洷
腎
繲
鼘
堥
僒
徸
靻
偐
佊
祬
賀
賝
弽
執
漁
漄
晱
庻
梖
坁
鴍
焬
跁
囇
偄
栠
霳
惉
諔
篂
鮁
譒
啿
芇
懠
懡
樆
厸
鍝
爧
匴
欆
踄
襼
犾
犓
撽
奅
揗
淔
挆
趌
冸
冞
輌
齴
垽
睖
阺
蛁
蛖
縸
彾
彨
彃
貑
蟡
愗
盃
潫
禶
鐀
煙
煀
蓕
巀
桾
颬
悈
嵧
灔
笀
峕
峈
憪
魼
鈖
唥
稕
珘
垪
鎮
荝
荺
袑
袽
閇
籘
籤
毾
毧
菙
駖
甤
狤
褟
褞
鸁
凷
欙
璸
璍
轞
繿
駻
蜫
徑
靽
豘
豑
螜
萿
庨
蒛
柉
嶛
薧
惿
嗺
嗗
篗
曣
瘋
懺
猏
樧
衁
埊
衯
爢
爫
鉰
鹵
肂
脧
虷
浘
鑙
鑁
蝦
洂
癝
趮
掕
鵣
鵴
趜
鐼
煈
蓒
砃
碐
颽
嵠
嘦
藯
怐
烿
傢
屆
唄
唍
鎺
蠎
橰
橷
緪
媁
顬
錝
傿
袟
勌
狿
聛
糚
糭
饛
饀
剨
腃
翢
溕
蚷
蚾
繝
臐
臄
眲
眗
豙
螎
埦
漮
漅
皒
梲
蒁
坃
鴶
柭
跀
偀
栰
熻
榡
癲
惞
瀀
舕
椂
寬
曖
檤
啩
啌
啈
穃
穩
懘
猵
猚
尶
鍴
殰
呁
婡
匰
裷
簎
黚
馧
踁
踑
踛
粖
肕
瑏
雽
揢
餅
觼
膪
鳳
矲
矂
鞼
湚
纐
倝
侢
鷽
掝
禈
鐥
幍
圵
朹
髺
齖
齉
碼
灥
宐
獜
獑
飍
緎
錋
閵
戨
娋
歍
攋
凾
墰
溒
蚼
迯
堶
蜧
徍
瞚
餲
偠
傰
賍
欘
萉
晐
瞙
庱
庉
邍
蒝
仱
磢
熑
惤
諈
崊
鉓
啝
芉
懬
鏕
樴
竃
慶
莵
簂
欗
痝
馮
犳
奆
瓆
壏
輛
輢
酼
齇
塰
睭
蛜
鬇
隒
蝳
湱
鱖
暩
濲
葻
枴
幎
訩
灢
嘨
銤
楑
憂
箛
鈴
屓
櫹
苩
抩
娗
甋
勊
氠
糦
剻
挀
雜
琝
琓
摱
墢
轙
兠
兂
堐
渨
豽
螆
鰡
俓
鱙
萴
晀
秄
梔
乷
鴺
闆
榽
噃
噖
瀇
崫
恑
恆
曅
譣
栺
穞
鬤
涺
衘
呅
婐
畨
頋
泤
匌
簊
簭
劮
餺
揝
觸
脀
捝
冑
輂
斱
膎
蛼
鑀
蝹
彽
霩
濹
濟
礳
贉
葁
潡
禗
禃
枦
蓤
砤
砄
巄
訹
怢
箉
層
獁
絡
鎁
荊
籚
毨
勼
狪
氃
氋
妐
剠
挓
蘴
摲
摝
陭
鼮
眤
敶
偨
鰆
俇
鴘
麷
骴
嶉
熷
騀
瀡
篅
寢
炵
炏
檴
孊
竡
厽
玔
鍵
莈
鷴
畆
頓
爣
餄
欋
黣
痯
襳
奞
奾
肦
憣
觟
搫
塵
膬
儽
縼
鬦
濦
濪
飶
趪
盶
丯
禌
燵
閗
嚂
嵑
灮
熝
怭
烒
楍
喠
箆
魛
魦
讆
屘
櫲
飃
飥
稯
珶
珛
蠦
橆
緩
錏
袎
袙
狘
褅
麥
逓
涹
覑
胣
夶
夅
凍
醹
摀
轖
繟
韲
韱
堛
僢
渜
偦
鶫
皅
皠
梩
乶
鯶
榬
噵
恴
鮫
炪
芲
鏚
哃
颾
埅
衛
綾
殠
畽
頬
簘
簵
遼
撆
刡
捤
冊
塕
忩
忯
忕
鱎
彑
盇
潃
禢
訓
嚖
嘇
藌
絑
櫎
飋
飬
嬇
稛
牳
聝
妉
妢
饌
覗
覭
罿
軖
琩
翐
溾
繈
臽
迊
豜
豤
螰
埓
梛
餭
坢
跜
囙
磩
榶
恲
炡
呮
呟
匔
耊
馚
馠
鉠
漐
犦
擽
汮
奃
肻
挱
餋
缹
酫
膶
蛡
矕
鑓
谾
礉
昍
盙
葄
蓸
髬
蕀
蕧
怲
銗
宲
唌
絸
叿
橔
媷
沰
狚
歁
麫
糳
蚦
繜
臨
堚
眳
眒
蜪
靱
豶
賣
詑
晲
庢
赨
鴹
焟
榹
噓
騵
崺
鮜
鮕
猔
紟
嫥
餟
鷀
裶
夃
襂
襡
擬
淉
捘
捖
冺
冎
酙
膚
儤
縳
蝑
貼
責
癧
昋
趕
葼
潧
禝
鐈
幭
棤
棜
朾
髵
髼
巆
巺
証
悞
誤
嵾
嵰
槾
峏
楜
艧
稒
臺
卂
戅
戁
勀
歀
罯
夘
韤
祦
漨
鶥
秥
墋
坓
柍
柕
蔾
榝
薩
薱
薲
騐
侽
撠
鮯
鹻
謞
茤
茠
樲
嫶
衚
綡
頂
爠
郰
黲
據
奜
肀
躝
躹
淚
觺
塓
鬡
彌
潈
幝
亐
嚔
桬
碯
悷
笶
蟕
魽
稅
珇
媆
顳
牪
籰
閜
菒
娕
邟
剬
醘
顣
繣
繎
堘
渁
秢
扄
閖
杋
崬
侞
岦
檾
啋
孏
茿
嫛
厀
鍟
呠
莦
畼
畗
項
郉
餻
黂
劍
擪
襪
奺
肰
躣
躨
刅
觵
階
冪
虅
羍
齚
膇
阧
隖
洃
倠
蟲
葈
蓋
嚸
悥
誎
嵺
嘄
槏
藄
笢
峼
楃
艓
箰
媙
魭
飢
珆
珜
抮
袘
娤
歐
糎
縓
驦
軭
軦
驉
凈
腒
繺
鰅
瘯
賜
弪
弔
欓
鶆
邧
蒩
硓
仈
杴
熂
諪
舑
椌
曔
檏
檒
謭
穫
懅
樁
厡
鍖
呥
畉
爖
爅
扷
姕
釽
輷
虰
垏
蛅
鱯
礰
鐧
忎
朸
齞
閷
誩
嵅
槷
媡
獽
絃
鎝
蠜
橺
荁
緵
鼦
疞
蘪
翲
墷
鄦
旪
旤
臇
駧
敓
鴐
跦
跔
仛
椮
篍
篣
篽
恾
曋
譢
啽
謻
鏄
嫐
厗
綼
莐
揼
壃
斢
齯
垎
垰
膹
蛬
鳱
洶
湐
癕
濅
鷮
潗
禸
鵝
枎
燻
悋
災
槢
笩
峐
峉
烆
艭
喛
鼲
唹
櫼
荋
戝
掻
饆
饠
胈
凎
凂
醝
醟
墧
墜
溙
堩
渹
豰
傱
漸
晵
評
梒
硵
詍
跡
嶫
詄
榙
噹
侐
築
篿
檺
懓
慹
鍫
殟
婙
莭
襥
撥
挶
餉
揈
輝
斖
辡
睄
滵
傮
鱁
蟖
愖
枺
營
侾
嚵
誮
灀
藾
笉
峸
宆
魕
獎
唞
絚
櫾
櫵
苧
稸
蠉
抪
抂
顠
袌
袇
卾
娮
涭
剒
鸓
旑
韛
僪
弅
鱝
鱐
漧
萰
梬
跇
騙
啨
啙
孫
鏠
哫
茙
納
樔
鍗
婘
鷶
郂
擓
挊
齩
阹
鑞
躠
彞
垹
虌
鐵
亰
蕫
嚴
颪
藑
艷
屵
絽
窵
錄
牶
菢
狟
褍
麢
蹹
鸐
墮
陥
繤
繪
旈
旓
臖
韗
浫
豓
瘇
鱆
萠
鶿
鋻
坺
硩
騳
嗁
椉
穊
樒
樻
竸
嫼
婎
偹
撧
奝
奲
肬
肣
憼
觩
搩
隑
壯
輩
膧
睋
儓
滒
鞙
蝚
湌
鱅
蟱
垙
幧
鑮
燈
桟
嘓
楀
喐
絯
緂
骬
閞
閣
罼
攓
驗
凔
蘠
蘦
龡
轥
韊
迗
敂
螇
俔
鱏
鋡
蔆
磿
嶆
噽
霬
諸
芢
尋
紽
嫆
厭
埲
鍀
綕
呇
骲
頄
泭
襏
脕
冐
輬
虪
酕
膵
滭
鳸
鞁
鬱
癦
倯
鉼
髥
燦
蕑
嚾
槴
怞
喴
箊
愢
珋
栯
栜
蠄
咉
褱
醩
詀
眧
敵
靝
鰽
瘨
侊
鱾
瞐
扡
柣
镹
騟
瀸
譕
譆
啓
嫓
鍌
爼
簔
簬
襾
捼
輯
輪
垐
膢
辥
阢
鞢
趚
丬
鵌
圕
棄
髐
齍
齌
驘
欱
灆
鯿
峑
烰
喯
箹
鈆
獌
唈
櫌
飠
珨
鎅
橝
緭
窮
窯
袡
牥
籈
菭
戫
糧
餙
雔
「
」
／
π
｢
｣
≥
〜
°
°c
±
≤
≈
×
÷
￥
＠
`
¡
¢
£
¤
¥
¦
§
¨
©
ª
«
¬
®
²
³
´
µ
¶
¹
º
»
¼
½
¾
¿
ß
æ
ð
ø
þ
đ
ħ
ı
ł
ŋ
œ
ƒ
ɐ
ɑ
ɒ
ɔ
ɕ
ə
ɛ
ɡ
ɣ
ɨ
ɪ
ɫ
ɬ
ɯ
ɲ
ɴ
ɹ
ɾ
ʀ
ʁ
ʂ
ʃ
ʉ
ʊ
ʋ
ʌ
ʎ
ʐ
ʑ
ʒ
ʔ
ʰ
ʲ
ʳ
ʷ
ʸ
ʻ
ʼ
ʾ
ʿ
ˈ
ː
ˡ
ˢ
ˣ
ˤ
α
β
γ
δ
ε
ζ
η
θ
ι
κ
λ
μ
ν
ξ
ο
ρ
ς
σ
τ
υ
φ
χ
ψ
ω
а
б
в
г
д
е
ж
з
и
к
л
м
н
о
п
р
с
т
у
ф
х
ц
ч
ш
щ
ъ
ы
ь
э
ю
я
ђ
є
і
ј
љ
њ
ћ
ӏ
ա
բ
գ
դ
ե
թ
ի
լ
կ
հ
մ
յ
ն
ո
պ
ս
վ
տ
ր
ւ
ք
־
א
ב
ג
ד
ה
ו
ז
ח
ט
י
ך
כ
ל
ם
מ
ן
נ
ס
ע
ף
פ
ץ
צ
ק
ר
ש
ת
،
ء
ا
ب
ة
ت
ث
ج
ح
خ
د
ذ
ر
ز
س
ش
ص
ض
ط
ظ
ع
غ
ـ
ف
ق
ك
ل
م
ن
ه
و
ى
ي
ٹ
پ
چ
ک
گ
ں
ھ
ہ
ی
ے
अ
आ
उ
ए
क
ख
ग
च
ज
ट
ड
ण
त
थ
द
ध
न
प
ब
भ
म
य
र
ल
व
श
ष
स
ह
ा
ि
ी
ो
।
॥
ং
অ
আ
ই
উ
এ
ও
ক
খ
গ
চ
ছ
জ
ট
ড
ণ
ত
থ
দ
ধ
ন
প
ব
ভ
ম
য
র
ল
শ
ষ
স
হ
া
ি
ী
ে
க
ச
ட
த
ந
ன
ப
ம
ய
ர
ல
ள
வ
ா
ி
ு
ே
ை
ನ
ರ
ಾ
ක
ය
ර
ල
ව
ා
ก
ง
ต
ท
น
พ
ม
ย
ร
ล
ว
ส
อ
า
เ
་
།
ག
ང
ད
ན
པ
བ
མ
འ
ར
ལ
ས
မ
ა
ბ
გ
დ
ე
ვ
თ
ი
კ
ლ
მ
ნ
ო
რ
ს
ტ
უ
ᄀ
ᄂ
ᄃ
ᄅ
ᄆ
ᄇ
ᄉ
ᄊ
ᄋ
ᄌ
ᄎ
ᄏ
ᄐ
ᄑ
ᄒ
ᅡ
ᅢ
ᅥ
ᅦ
ᅧ
ᅩ
ᅪ
ᅭ
ᅮ
ᅯ
ᅲ
ᅳ
ᅴ
ᅵ
ᆨ
ᆫ
ᆯ
ᆷ
ᆸ
ᆼ
ᴬ
ᴮ
ᴰ
ᴵ
ᴺ
ᵀ
ᵃ
ᵇ
ᵈ
ᵉ
ᵍ
ᵏ
ᵐ
ᵒ
ᵖ
ᵗ
ᵘ
ᵢ
ᵣ
ᵤ
ᵥ
ᶜ
ᶠ
‐
‑
‒
–
―
‖
‚
„
†
‡
•
‰
′
″
›
‿
⁄
⁰
ⁱ
⁴
⁵
⁶
⁷
⁸
⁹
⁺
⁻
ⁿ
₀
₁
₂
₃
₄
₅
₆
₇
₈
₉
₊
₍
₎
ₐ
ₑ
ₒ
ₓ
ₕ
ₖ
ₗ
ₘ
ₙ
ₚ
ₛ
ₜ
₤
₩
€
₱
₹
ℓ
№
ℝ
™
⅓
⅔
←
↑
→
↓
↔
↦
⇄
⇌
⇒
∂
∅
∆
∇
∈
−
∗
∘
√
∞
∧
∨
∩
∪
≡
⊂
⊆
⊕
⊗
⋅
─
│
■
▪
●
☆
☉
♠
♣
♥
♦
♭
♯
⟨
⟩
ⱼ
⺩
⺼
⽥
〈
〉
『
』
あ
い
う
え
お
か
き
く
け
こ
さ
し
す
せ
そ
た
ち
っ
つ
て
と
な
に
ぬ
ね
は
ひ
ふ
へ
ほ
ま
み
む
め
も
や
ゆ
よ
ら
り
る
れ
ろ
を
ん
ァ
ア
ィ
イ
ウ
ェ
エ
オ
カ
キ
ク
ケ
コ
サ
シ
ス
セ
タ
チ
ッ
ツ
テ
ト
ナ
ニ
ノ
ハ
ヒ
フ
ヘ
ホ
マ
ミ
ム
メ
モ
ャ
ュ
ョ
ラ
リ
ル
レ
ロ
ワ
ン
・
亻
仮
劉
勝
國
場
宀
宮
將
岡
島
巿
張
彳
忄
愛
扌
書
東
楊
樹
橋
氷
漢
瀬
疒
糹
義
艹
華
葉
見
語
貝
貴
車
軍
辶
長
門
間
阝
陳
陽
風
馬
龍
龸
ﬁ
ﬂ
－
．
later
...
born
became
took
called
however
several
following
released
played
began
district
held
early
league
government
came
looked
went
few
father
former
located
though
century
large
named
started
built
moved
door
president
wasn
although
due
major
died
third
knew
asked
turned
wanted
received
son
served
behind
himself
felt
members
football
near
having
saw
mother
army
front
division
across
told
often
french
six
among
species
according
half
original
gave
opened
included
given
german
woman
community
might
million
court
almost
director
council
career
married
worked
others
record
anything
continued
military
established
returned
written
feet
already
championship
department
role
various
television
produced
working
region
present
period
least
total
england
wife
brother
soon
political
taken
created
further
able
reached
joined
upon
either
appeared
position
ground
lead
election
arms
police
instead
moment
announced
less
wrote
past
followed
founded
finally
india
taking
considered
northern
toward
outside
described
heard
australia
miles
blood
southern
maybe
mouth
race
recorded
above
daughter
middle
tried
elected
closed
ten
minister
chief
person
similar
brought
rest
formed
floor
killed
training
needed
finished
railway
rather
sent
example
ran
term
currently
forces
despite
areas
fact
originally
germany
probably
developed
pulled
stood
signed
songs
eventually
met
average
teams
minutes
decided
usually
eastern
seemed
episode
bed
added
indian
route
throughout
addition
appointed
eight
construction
remained
schools
sometimes
australian
forward
debut
seat
committee
character
herself
russian
range
hours
sold
quickly
directed
guitar
performed
players
smile
placed
province
towards
wouldn
leading
designed
census
europe
attack
japanese
lower
wide
hospital
changed
sister
hadn
ship
shot
below
involved
kept
largest
especially
beginning
movement
female
professor
longer
walked
actually
civil
families
thus
aircraft
completed
includes
captain
vocals
featured
fourth
officer
means
groups
lips
competition
entire
lived
leaving
federal
tournament
passed
independent
kingdom
spent
reported
raised
itself
replaced
leader
theatre
whose
parents
spanish
canadian
degree
writing
awarded
higher
coast
provided
senior
organization
stopped
onto
countries
parts
interest
saying
allowed
earlier
winning
happened
moving
los
breath
nearly
mid
certain
italian
african
standing
fell
artist
shows
deal
industry
everyone
republic
provide
student
primary
owned
older
heavy
1st
attention
anyone
africa
stated
length
ended
fingers
command
staff
foreign
opening
governor
okay
medal
kill
introduced
chest
hell
success
meet
reason
meeting
trade
buildings
guy
goal
native
husband
previously
entered
producer
operations
takes
covered
forced
roman
successful
texas
cold
traditional
films
approximately
nine
question
tracks
ireland
regional
personal
operation
holding
twenty
additional
hour
regular
historic
places
whom
shook
km²
secretary
prior
scored
units
ask
property
immediately
month
listed
contract
themselves
lines
navy
writer
meant
runs
practice
championships
singer
commission
required
starting
generally
giving
attended
couple
catholic
caught
executive
chair
quite
shoulder
decision
plays
defeated
municipality
whether
offered
slowly
pain
direction
mission
mostly
noted
individual
managed
lives
helped
except
studied
figure
relationship
issue
significant
loss
smiled
gun
highest
male
goals
mexico
problem
distance
commercial
completely
annual
famous
neck
caused
italy
greek
highway
comes
appearance
issues
musical
companies
castle
income
assembly
bass
initially
parliament
artists
particular
foot
talking
dropped
stars
remember
carried
train
stadium
angeles
evidence
becoming
assistant
soviet
upper
youth
reach
actor
numerous
nodded
arrived
minute
believed
complex
victory
associated
temple
chance
perhaps
bishop
launched
particularly
retired
subject
prize
contains
empire
suddenly
trust
recording
terms
champion
religious
zealand
names
2nd
ancient
corner
represented
legal
justice
watched
brothers
material
changes
simply
response
answer
historical
stories
straight
feature
increased
administration
virginia
activities
cultural
overall
winner
programs
basketball
legs
guard
cast
doctor
flight
results
remains
cost
winter
larger
islands
problems
chairman
grew
commander
isn
failed
selected
hurt
fort
regiment
majority
plans
shown
pretty
irish
characters
directly
scene
likely
operated
allow
matches
looks
houses
fellow
marriage
rules
florida
expected
nearby
congress
peace
recent
subsequently
variety
serving
agreed
poor
attempt
wood
democratic
rural
mile
appears
township
soldiers
##ized
pennsylvania
closer
fighting
claimed
filled
genus
specific
sitting
mom
therefore
supported
status
fear
cases
meaning
wales
minor
spain
vice
parish
separate
horse
fifth
remaining
branch
presented
stared
uses
forms
baseball
exactly
choice
discovered
composed
truth
russia
dad
ring
referred
numbers
greater
metres
slightly
increase
responsible
crew
rule
trees
troops
broke
goes
individuals
hundred
weight
creek
sleep
defense
ordered
jewish
safe
judge
whatever
corps
realized
growing
cities
gaze
lies
spread
letter
showed
situation
mayor
transport
watching
workers
extended
expression
normal
chart
multiple
border
mrs
walls
piano
heat
cannot
earned
drama
era
authority
seasons
join
grade
difficult
territory
mainly
stations
squadron
stepped
iron
19th
serve
appear
speak
broken
charge
knowledge
kilometres
removed
ships
campus
pushed
britain
leaves
recently
boston
latter
acquired
poland
officers
presence
planned
nations
mass
broadcast
influence
wild
emperor
electric
headed
ability
promoted
yellow
ministry
throat
smaller
politician
latin
spoke
cars
males
lack
acting
seeing
consists
estate
pressure
newspaper
olympics
conditions
elements
walking
vote
needs
carolina
featuring
francisco
purpose
females
dutch
duke
ahead
gas
safety
serious
turning
highly
lieutenant
firm
amount
mixed
proposed
agreement
affairs
3rd
seconds
contemporary
paid
prison
label
administrative
intended
constructed
academic
teacher
races
formerly
nation
issued
shut
drums
housing
seems
graduated
mentioned
picked
recognized
shortly
protection
notable
elections
1980s
loved
percent
racing
elizabeth
volume
hockey
beside
settled
competed
replied
drew
actress
marine
scotland
steel
glanced
farm
risk
positive
singles
gray
residents
sides
none
secondary
literature
polish
destroyed
flying
founder
households
lay
reserve
younger
approach
appearances
ones
finish
powerful
fully
growth
honor
jersey
projects
revealed
infantry
pair
equipment
visit
evening
grant
effort
treatment
buried
republican
primarily
bottom
owner
1970s
israel
gives
remain
spot
produce
champions
accepted
ways
##ally
losing
split
capacity
basis
trial
questions
20th
guess
officially
memorial
naval
initial
##ization
whispered
median
sydney
columbia
strength
tears
senate
draw
warm
supposed
transferred
leaned
candidate
escape
mountains
potential
activity
seem
traffic
murder
slow
orchestra
haven
agency
taught
website
comedy
unable
storm
planning
albums
rugby
environment
scientific
grabbed
protect
boat
typically
damage
principal
divided
dedicated
ohio
pick
fought
driver
empty
shoulders
sort
thank
berlin
prominent
account
freedom
necessary
efforts
headquarters
follows
alongside
suggested
operating
steps
technical
begin
easily
teeth
speaking
settlement
scale
renamed
enemy
semi
joint
compared
scottish
leadership
offers
georgia
pieces
captured
animal
deputy
organized
combined
challenge
1960s
huge
wants
battalion
sons
rise
crime
types
facilities
telling
platform
sit
1990s
tells
assigned
pull
commonly
alive
concept
conducted
wearing
happen
bought
becomes
holy
gets
defeat
languages
purchased
occurred
titled
declared
concert
sounds
brain
painting
fleet
tax
michigan
animals
leaders
episodes
birth
clubs
palace
critical
refused
fair
leg
laughed
returning
surrounding
participated
formation
lifted
pointed
connected
rome
medicine
laid
powers
tall
shared
focused
knowing
yards
entrance
falls
calling
sources
chosen
beneath
resources
yard
nominated
silence
defined
gained
thirty
bodies
adopted
widely
register
apart
iran
premier
serves
unknown
parties
generation
continues
fields
brigade
quiet
teaching
clothes
impact
weapons
partner
flat
theater
relations
plants
suffered
begins
seats
armed
models
worth
laws
communities
classes
background
knows
thanks
quarter
reaching
humans
carry
killing
format
setting
architecture
disease
railroad
possibly
thoughts
doors
density
crowd
illinois
stomach
tone
reports
anyway
liberal
vehicle
thick
dry
drug
faced
largely
facility
theme
holds
creation
strange
colonel
revolution
politics
turns
silent
rail
relief
independence
combat
shape
determined
sales
learned
4th
finger
providing
heritage
fiction
situated
designated
allowing
hosted
sight
interview
estimated
reduced
toronto
footballer
keeping
guys
damn
claim
motion
sixth
stayed
rear
receive
handed
twelve
dress
audience
granted
brazil
spirit
##ated
noticed
olympic
representative
tight
trouble
reviews
drink
vampire
missing
roles
ranked
newly
household
finals
critics
phase
massachusetts
pilot
unlike
philadelphia
bright
guns
crown
organizations
roof
respectively
clearly
tongue
marked
circle
bronze
expanded
sexual
supply
inspired
labour
reference
draft
connection
reasons
driving
jesus
entry
neither
trail
claims
atlantic
orders
labor
nose
afraid
identified
intelligence
calls
cancer
attacked
passing
positions
imperial
grey
swedish
avoid
extra
uncle
covers
surprise
fame
hunter
citizens
figures
confirmed
titles
performing
difference
acts
attacks
existing
votes
opportunity
nor
entirely
trains
opposite
pakistan
develop
resulted
representatives
actions
reality
pressed
barely
conversation
faculty
northwest
ends
documentary
nuclear
stock
sets
eat
alternative
resulting
creating
surprised
cemetery
drop
finding
cricket
streets
tradition
ride
ear
explained
composer
injury
apartment
municipal
educational
occupied
netherlands
clean
billion
constitution
maximum
classical
opposition
ontario
hills
rolled
ending
drawn
permanent
sites
chamber
scoring
height
lyrics
staring
officials
snow
oldest
qualified
interior
apparently
succeeded
thousand
dinner
lights
existence
heavily
greatest
conservative
bowl
catch
duty
speech
authorities
princess
performances
versions
shall
graduate
pictures
effective
remembered
poetry
desk
crossed
starring
starts
passenger
sharp
acres
ass
weather
falling
rank
fund
supporting
adult
heads
southeast
lane
condition
transfer
prevent
regions
earl
federation
relatively
answered
besides
obtained
portion
reaction
liked
peak
counter
religion
chain
rare
convention
aid
lie
vehicles
perform
squad
wonder
lying
sword
attempted
centuries
weren
philosophy
interested
sweden
wolf
frequently
abandoned
literary
alliance
task
entitled
threw
promotion
tiny
soccer
visited
achieved
defence
internal
persian
methods
arrested
otherwise
programming
villages
elementary
districts
rooms
criminal
conflict
worry
trained
attempts
waited
signal
truck
subsequent
programme
communist
faith
sector
carrying
laugh
controlled
korean
showing
origin
fuel
evil
brief
identity
darkness
pool
missed
publication
wings
invited
briefly
standards
kissed
ideas
climate
causing
worse
albert
winners
desire
aged
northeast
dangerous
gate
doubt
wooden
poet
rising
funding
violence
copies
prepared
investigation
skills
pulling
containing
ultimately
offices
singing
understanding
tomorrow
christ
ward
pope
stands
5th
flow
studios
aired
commissioned
contained
exist
americans
wrestling
approved
kid
employed
respect
suit
asking
increasing
frame
angry
selling
1950s
thin
finds
temperature
statement
ali
explain
inhabitants
towns
extensive
narrow
flowers
promise
somewhere
closely
bureau
cape
weekly
presidential
legislative
launch
founding
artillery
strike
institutions
roll
writers
landing
chose
anymore
attorney
receiving
agricultural
breaking
sought
admitted
lands
mexican
##bury
specifically
hole
moscow
roads
accident
proved
struck
guards
stuff
slid
expansion
melbourne
opposed
sub
southwest
architect
failure
plane
tank
listen
regarding
wet
introduction
metropolitan
fighter
inch
grown
gene
anger
fixed
khan
domestic
worldwide
chapel
mill
functions
examples
developing
turkey
hits
pocket
antonio
papers
grow
unless
circuit
18th
concerned
attached
journalist
selection
journey
converted
provincial
painted
hearing
aren
bands
negative
aside
wondered
knight
lap
noise
billy
shooting
bedroom
priest
resistance
motor
homes
sounded
giant
scenes
equal
comic
patients
hidden
solid
actual
bringing
afternoon
touched
funds
consisted
canal
treaty
turkish
recognition
residence
cathedral
broad
knees
incident
shaped
fired
norwegian
handle
cheek
contest
represent
representing
birds
advantage
emergency
wrapped
drawing
notice
broadcasting
somehow
bachelor
seventh
collected
registered
establishment
assumed
personnel
retirement
portuguese
wore
tied
threat
progress
advance
##ised
banks
hired
manchester
nfl
teachers
structures
tennis
helping
saturday
junction
incorporated
neighborhood
dressed
ceremony
influenced
hers
stairs
decades
inner
kansas
hung
hoped
gain
scheduled
downtown
engaged
austria
clock
norway
certainly
pale
victor
employees
plate
putting
surrounded
##ists
finishing
blues
tropical
minnesota
consider
philippines
accept
retrieved
concern
properties
institution
gordon
successfully
vietnam
backing
outstanding
muslim
crossing
folk
producing
usual
demand
occurs
observed
lawyer
educated
pleasure
budget
items
quietly
colorado
philip
typical
##worth
derived
survived
asks
mental
jake
jews
distinguished
sri
extremely
athletic
loud
thousands
worried
transportation
horses
weapon
arena
importance
users
objects
contributed
douglas
aware
senator
sisters
engines
flag
investment
samuel
shock
capable
clark
row
wheel
refers
familiar
biggest
wins
hate
maintained
drove
hamilton
expressed
injured
underground
churches
wars
tunnel
passes
stupid
agriculture
softly
cabinet
regarded
joining
indiana
dates
spend
behavior
woods
protein
gently
chase
morgan
mention
burning
wake
combination
occur
mirror
leads
indeed
impossible
paintings
covering
soldier
locations
attendance
sell
historian
wisconsin
invasion
argued
painter
diego
changing
egypt
experienced
inches
missouri
grounds
spoken
switzerland
reform
rolling
massive
resigned
burned
tennessee
locked
values
improved
wounded
universe
sick
dating
facing
purchase
##pur
moments
merged
anniversary
coal
brick
understood
causes
dynasty
queensland
establish
stores
crisis
promote
hoping
cards
referee
extension
raise
arizona
improve
colonial
formal
charged
palm
hide
rescue
faces
feelings
candidates
juan
6th
courses
weekend
luke
cash
fallen
delivered
affected
installed
carefully
tries
hollywood
costs
lincoln
responsibility
shore
proper
normally
maryland
assistance
constant
offering
friendly
waters
persons
realize
contain
trophy
partnership
factor
musicians
bound
oregon
indicated
houston
medium
consisting
somewhat
cycle
beer
moore
frederick
gotten
worst
weak
approached
arranged
chin
loan
bond
fifteen
pattern
disappeared
translated
##zed
lip
arab
capture
interests
insurance
shifted
cave
prix
warning
sections
courts
coat
plot
smell
golf
maintain
knife
voted
degrees
finance
quebec
opinion
translation
manner
ruled
operate
productions
musician
confused
tired
separated
stream
techniques
committed
attend
ranking
kings
throw
passengers
measure
horror
mining
sand
danger
calm
decade
dam
require
runner
rush
associate
greece
rivers
consecutive
matthew
##ski
sighed
sq
documents
closing
tie
accused
islamic
distributed
directors
organisation
7th
breathing
mad
lit
arrival
concrete
taste
composition
shaking
faster
amateur
adjacent
stating
twin
flew
publications
obviously
ridge
storage
pages
concluded
desert
driven
universities
ages
terminal
sequence
borough
constituency
cousin
dreams
margaret
notably
reduce
montreal
17th
ears
saved
vocal
riding
roughly
threatened
meters
meanwhile
landed
compete
repeated
grass
czech
regularly
charges
sudden
appeal
solution
describes
classification
glad
parking
belt
rachel
hungarian
participate
expedition
damaged
gift
childhood
fifty
mathematics
jumped
letting
defensive
mph
testing
hundreds
shoot
owners
matters
smoke
israeli
kentucky
dancing
mounted
grandfather
designs
profit
argentina
truly
lawrence
cole
begun
detroit
willing
branches
smiling
decide
miami
enjoyed
recordings
##dale
poverty
ethnic
arabic
accompanied
fishing
determine
residential
returns
starred
strategy
forty
businesses
equivalent
commonwealth
distinct
ill
seriously
##ped
harris
replace
rio
imagine
formula
ensure
additionally
scheme
conservation
occasionally
purposes
feels
favor
1930s
contrast
hanging
hunt
movies
instruments
victims
danish
christopher
busy
demon
sugar
earliest
colony
studying
duties
belgium
slipped
carter
visible
stages
iraq
commune
forming
continuing
talked
counties
legend
bathroom
option
tail
clay
daughters
afterwards
severe
jaw
visitors
devices
aviation
entering
subjects
temporary
swimming
forth
smooth
bush
operates
rocks
movements
signs
eddie
voices
honorary
memories
dallas
measures
racial
promised
harvard
16th
parliamentary
indicate
benefit
flesh
dublin
louisiana
patient
sleeping
membership
coastal
medieval
wanting
element
scholars
rice
limit
survive
makeup
rating
definitely
collaboration
obvious
baron
birthday
linked
soil
diocese
offensive
shouldn
waist
plain
ross
organ
resolution
manufacturing
adding
relative
kennedy
whilst
moth
gardens
crash
heading
partners
credited
carlos
moves
cable
marshall
depending
bottle
represents
rejected
responded
existed
denmark
##ating
treated
graham
routes
talent
commissioner
drugs
secure
tests
reign
restored
photography
contributions
oklahoma
designer
disc
grin
seattle
robin
paused
atlanta
unusual
praised
las
laughing
satellite
hungary
visiting
interesting
factors
deck
poems
norman
##water
stuck
speaker
rifle
premiered
comics
actors
reputation
eliminated
8th
ceiling
prisoners
leather
austin
mississippi
rapidly
admiral
parallel
charlotte
guilty
tools
gender
divisions
fruit
laboratory
nelson
marry
rapid
aunt
tribe
requirements
aspects
suicide
amongst
adams
bone
ukraine
kick
sees
edinburgh
clothing
column
rough
gods
hunting
broadway
gathered
concerns
spending
ty
12th
snapped
requires
solar
bones
cavalry
iowa
drinking
waste
franklin
charity
thompson
stewart
tip
landscape
singh
poem
listening
eighth
fred
differences
adapted
bomb
ukrainian
surgery
corporate
masters
anywhere
waves
odd
portugal
orleans
dick
debate
kent
eating
puerto
cleared
expect
cinema
guitarist
blocks
electrical
agree
involving
depth
dying
panel
struggle
peninsula
adults
novels
emerged
vienna
debuted
shoes
tamil
songwriter
meets
prove
beating
instance
heaven
scared
sending
marks
artistic
passage
superior
significantly
retained
##izing
technique
cheeks
warren
maintenance
destroy
extreme
allied
appearing
fill
advice
alabama
qualifying
policies
cleveland
hat
battery
authors
10th
soundtrack
acted
dated
lb
glance
equipped
coalition
funny
outer
ambassador
roy
possibility
couples
campbell
loose
ethan
supplies
monster
shake
agents
frequency
springs
dogs
practices
gang
plastic
easier
suggests
gulf
blade
exposed
colors
industries
markets
nervous
electoral
charts
legislation
ownership
##idae
appointment
shield
assault
socialist
abbey
monument
license
throne
employment
replacement
charter
suffering
accounts
oak
connecticut
strongly
wright
colour
13th
context
welsh
networks
voiced
gabriel
forehead
manage
schedule
totally
remix
forests
occupation
print
nicholas
brazilian
strategic
vampires
engineers
roots
seek
correct
instrumental
alfred
backed
stanley
robinson
traveled
wayne
austrian
achieve
exit
rates
strip
whereas
sing
deeply
adventure
bobby
jamie
careful
components
cap
useful
personality
knee
pushing
hosts
protest
ottoman
symphony
boundary
processes
considering
considerable
tons
cooper
trading
conduct
illegal
revolutionary
definition
harder
jacob
circumstances
destruction
popularity
grip
classified
liverpool
baltimore
flows
seeking
honour
approval
mechanical
till
happening
statue
critic
increasingly
immediate
describe
commerce
stare
indonesia
meat
rounds
boats
baker
orthodox
depression
formally
worn
naked
muttered
sentence
11th
criticism
wished
vessel
spiritual
bent
virgin
minimum
murray
lunch
danny
printed
compilation
keyboards
blow
belonged
raising
cutting
pittsburgh
9th
shadows
hated
indigenous
jon
15th
barry
scholar
oliver
stick
susan
meetings
attracted
spell
romantic
ye
demanded
customers
logan
revival
keys
modified
commanded
jeans
upset
phil
detective
hiding
resident
##bly
experiences
diamond
defeating
coverage
lucas
external
parks
franchise
helen
bible
successor
percussion
celebrated
lift
clan
romania
##ied
mills
nobody
achievement
shrugged
fault
rhythm
initiative
breakfast
carbon
lasted
violent
wound
killer
gradually
filmed
processing
remove
criticized
guests
sang
legislature
##bridge
uniform
escaped
integrated
proposal
purple
denied
liquid
influential
morris
nights
stones
intense
experimental
twisted
pace
nazi
mitchell
ny
blind
reporter
newspapers
14th
centers
burn
basin
forgotten
surviving
filed
collections
monastery
losses
manual
couch
description
appropriate
merely
missions
sebastian
restoration
replacing
triple
elder
julia
warriors
benjamin
julian
convinced
stronger
amazing
declined
versus
merchant
happens
output
finland
bare
barbara
absence
ignored
dawn
injuries
producers
luis
##ities
admit
expensive
electricity
exception
symbol
ladies
shower
sheriff
characteristics
##je
aimed
ratio
effectively
summit
angle
jury
bears
foster
vessels
pants
executed
evans
dozen
advertising
kicked
patrol
competitions
lifetime
principles
athletics
birmingham
sponsored
rob
nomination
acoustic
creature
longest
credits
harbor
dust
josh
territories
milk
infrastructure
completion
thailand
indians
leon
archbishop
assist
pitch
blake
arrangement
girlfriend
serbian
operational
hence
sad
scent
fur
sessions
refer
rarely
exists
scientists
dirty
penalty
burst
portrait
seed
pole
limits
rival
stable
grave
constitutional
alcohol
arrest
flower
mystery
devil
architectural
relationships
greatly
habitat
##istic
larry
progressive
remote
cotton
preserved
reaches
cited
vast
scholarship
decisions
teach
editions
knocked
eve
searching
partly
participation
animated
fate
excellent
alternate
saints
youngest
climbed
suggest
discussion
staying
choir
lakes
jacket
revenue
nevertheless
peaked
instrument
wondering
annually
managing
neil
signing
terry
apply
clinical
brooklyn
catherine
fuck
farmers
figured
ninth
pride
hugh
ordinary
involvement
comfortable
shouted
encouraged
representation
sharing
panic
exact
cargo
competing
fat
cried
1920s
occasions
cabin
borders
utah
marcus
##isation
badly
muscles
victorian
transition
warner
bet
permission
slave
terrible
similarly
shares
seth
uefa
possession
medals
benefits
colleges
lowered
perfectly
transit
##kar
publisher
##ened
harrison
deaths
elevation
asleep
machines
sigh
ash
hardly
argument
occasion
parent
decline
contribution
concentration
opportunities
hispanic
guardian
extent
emotions
hips
mason
volumes
bloody
controversy
diameter
steady
mistake
phoenix
identify
violin
departure
richmond
spin
funeral
enemies
literally
connor
random
sergeant
grab
confusion
transmission
informed
leaning
sacred
suspended
thinks
gates
portland
luck
agencies
yours
hull
expert
muscle
layer
practical
sculpture
jerusalem
lloyd
statistics
deeper
recommended
warrior
arkansas
mess
supports
greg
eagle
recovered
rated
concerts
rushed
stops
eggs
premiere
keith
delhi
turner
pit
affair
belief
paint
##zing
victim
withdrew
bonus
styles
fled
glasgow
technologies
funded
adaptation
portrayed
cooperation
supporters
judges
bernard
hallway
ralph
graduating
controversial
distant
continental
spider
bite
recognize
intention
mixing
egyptian
bow
tourism
suppose
claiming
dominated
participants
nurse
partially
tape
psychology
essential
touring
duo
voting
civilian
emotional
channels
apparent
hebrew
tommy
carrier
intersection
beast
hudson
bench
discuss
costa
##ered
detailed
behalf
drivers
unfortunately
obtain
rocky
##dae
siege
friendship
hang
governments
collins
respond
wildlife
preferred
operator
laura
pregnant
videos
dennis
suspected
boots
instantly
weird
automatic
businessman
alleged
placing
throwing
mood
perry
venue
jet
remainder
passion
biological
boyfriend
dirt
buffalo
ron
segment
abuse
genre
thrown
stroke
colored
stress
exercise
displayed
struggled
abroad
dramatic
wonderful
thereafter
madrid
component
widespread
##sed
tale
citizen
todd
vancouver
overseas
forcing
crying
descent
discussed
substantial
ranks
regime
provinces
drum
zane
tribes
proof
researchers
volunteer
manor
silk
milan
donated
allies
venture
principle
delivery
bars
traditionally
witch
reminded
copper
pete
inter
colin
grinned
elsewhere
competitive
frequent
scream
tension
texts
submarine
finnish
defending
defend
pat
detail
affiliated
stuart
themes
periods
tool
belgian
ruling
crimes
answers
folded
licensed
demolished
hans
lucy
lion
traded
photographs
writes
craig
trials
generated
beth
noble
debt
percentage
yorkshire
erected
viewed
grades
confidence
ceased
islam
telephone
retail
chile
m²
roberts
sixteen
commented
hampshire
innocent
dual
pounds
checked
regulations
afghanistan
sung
rico
liberty
assets
bigger
options
angels
relegated
tribute
wells
attending
leaf
romanian
monthly
patterns
gmina
madison
hurricane
##ians
bristol
elite
valuable
disaster
democracy
awareness
germans
freyja
loop
absolutely
paying
populations
maine
sole
prayer
spencer
releases
doorway
bull
lover
midnight
conclusion
thirteen
mediterranean
nhl
proud
sample
##hill
drummer
guinea
murphy
climb
instant
attributed
horn
railways
autumn
ferry
opponent
traveling
secured
corridor
stretched
tales
sheet
trinity
cattle
helps
indicates
manhattan
murdered
fitted
gentle
grandmother
mines
shocked
vegas
produces
caribbean
belong
continuous
desperate
drunk
historically
trio
waved
raf
dealing
nathan
murmured
interrupted
residing
scientist
pioneer
harold
aaron
attempting
minority
believes
chorus
tend
lots
eyed
indoor
load
shots
updated
jail
concerning
connecting
wealth
slaves
arrive
rangers
sufficient
rebuilt
##wick
cardinal
flood
muhammad
whenever
relation
runners
moral
repair
viewers
arriving
revenge
punk
assisted
bath
fairly
breathe
lists
innings
illustrated
whisper
nearest
voters
clinton
ties
ultimate
screamed
lions
andre
fictional
gathering
comfort
radar
suitable
dismissed
hms
ban
pine
wrist
atmosphere
voivodeship
bid
timber
##ned
giants
cameron
recovery
uss
identical
categories
switched
serbia
laughter
noah
ensemble
therapy
peoples
touching
##off
locally
pearl
platforms
everywhere
ballet
tables
lanka
herbert
outdoor
toured
derek
spaces
contested
swept
exclusive
slight
connections
winds
prisoner
collective
bangladesh
tube
publicly
wealthy
isolated
insisted
fortune
ticket
spotted
reportedly
animation
enforcement
tanks
decides
wider
lowest
owen
nod
hitting
gregory
furthermore
magazines
fighters
solutions
pointing
requested
peru
reed
chancellor
knights
mask
worker
eldest
flames
reduction
volunteers
reporting
wire
advisory
endemic
origins
settlers
pursue
knock
consumer
eu
compound
creatures
mansion
sentenced
ivan
deployed
guitars
frowned
involves
mechanism
kilometers
perspective
shops
terminus
duncan
alien
fist
bridges
##pers
heroes
derby
swallowed
patent
sara
illness
characterized
adventures
slide
hawaii
jurisdiction
organised
adelaide
walks
rogers
swing
tightly
boundaries
prepare
implementation
stolen
certified
colombia
edwards
garage
recalled
rage
harm
nigeria
breast
furniture
pupils
settle
cuba
balls
alaska
21st
linear
thrust
celebration
latino
genetic
terror
##ening
lightning
fee
witness
lodge
establishing
skull
earning
hood
rebellion
sporting
warned
missile
devoted
activist
porch
worship
fourteen
package
decorated
##shire
housed
chess
sailed
doctors
oscar
joan
treat
garcia
harbour
jeremy
traditions
dominant
jacques
##gon
relocated
amendment
sized
companion
simultaneously
volleyball
spun
acre
increases
stopping
loves
belongs
affect
drafted
tossed
scout
battles
filming
shoved
munich
tenure
vertical
romance
argue
craft
ranging
opens
honest
tyler
yesterday
muslims
reveal
snake
immigrants
radical
screaming
speakers
firing
saving
belonging
ease
lighting
prefecture
blame
farmer
hungry
grows
rubbed
beam
sur
subsidiary
armenian
dropping
conventional
qualify
spots
sweat
festivals
immigration
physician
discover
exposure
sandy
explanation
isaac
implemented
##fish
hart
initiated
stakes
presents
heights
householder
pleased
tourist
regardless
slip
closest
surely
sultan
brings
riley
preparation
aboard
slammed
baptist
experiment
ongoing
interstate
organic
playoffs
hindu
tours
tier
plenty
arrangements
talks
trapped
excited
sank
athens
denver
welfare
suburb
athletes
trick
diverse
belly
exclusively
yelled
conversion
internationally
computers
conductor
abilities
sensitive
dispute
measured
globe
rocket
prices
amsterdam
flights
tigers
municipalities
emotion
references
explains
airlines
manufactured
archaeological
interpretation
devon
##ites
settlements
kissing
absolute
improvement
impressed
barcelona
sullivan
jefferson
towers
jesse
julie
grandson
gauge
regard
rings
interviews
trace
raymond
thumb
departments
burns
serial
bulgarian
scores
demonstrated
kyle
alberta
underneath
romanized
relieved
acquisition
phrase
cliff
reveals
cuts
merger
custom
nee
gilbert
graduation
assessment
difficulty
demands
swung
democrat
commons
1940s
grove
completing
focuses
sum
substitute
bearing
stretch
reception
reflected
essentially
destination
pairs
##ched
survival
resource
##bach
promoting
doubles
messages
tear
##fully
parade
florence
harvey
incumbent
partial
pedro
frozen
procedure
olivia
controls
shelter
personally
temperatures
brisbane
tested
sits
marble
comprehensive
oxygen
leonard
##kov
inaugural
iranian
referring
quarters
attitude
mainstream
lined
mars
dakota
norfolk
unsuccessful
##°
explosion
helicopter
congressional
##sing
inspector
bitch
seal
departed
divine
coaching
examination
punishment
manufacturer
sink
columns
unincorporated
signals
nevada
squeezed
dylan
dining
martial
manuel
eighteen
elevator
brushed
plates
ministers
congregation
slept
specialized
taxes
restricted
negotiations
likes
statistical
arnold
inspiration
execution
bold
intermediate
significance
margin
ruler
wheels
gothic
intellectual
dependent
listened
eligible
buses
widow
syria
earn
cincinnati
collapsed
recipient
secrets
accessible
philippine
maritime
goddess
clerk
surrender
breaks
playoff
ideal
beetle
aspect
soap
regulation
strings
expand
anglo
shorter
crosses
retreat
tough
coins
wallace
directions
pressing
shipping
locomotives
comparison
topics
nephew
distinction
honors
travelled
sierra
ibn
fortress
recognised
carved
clients
intent
coaches
describing
bread
##ington
beaten
northwestern
merit
collapse
challenges
historians
objective
submitted
virus
attacking
drake
assume
diseases
stem
leeds
farming
glasses
visits
nowhere
fellowship
relevant
carries
restaurants
experiments
constantly
bases
targets
shah
tenth
opponents
verse
territorial
writings
corruption
instruction
inherited
reverse
emphasis
employee
arch
keeps
rabbi
watson
payment
uh
nancy
##tre
venice
fastest
sexy
banned
adrian
properly
ruth
touchdown
dollar
boards
metre
circles
edges
favour
travels
liberation
scattered
firmly
holland
permitted
diesel
kenya
den
originated
demons
resumed
dragged
rider
servant
blinked
extend
torn
##sey
input
meal
everybody
cylinder
kinds
camps
bullet
logic
croatian
evolved
healthy
fool
wise
preserve
pradesh
respective
artificial
gross
corresponding
convicted
cage
caroline
dialogue
##dor
narrative
stranger
mario
christianity
failing
trent
commanding
buddhist
maurice
focusing
yale
bike
altitude
mouse
revised
##sley
veteran
pulls
theology
crashed
campaigns
legion
##ability
drag
excellence
customer
cancelled
intensity
excuse
liga
participating
contributing
printing
##burn
variable
curious
legacy
renaissance
symptoms
binding
vocalist
dancer
grammar
gospel
democrats
enters
diplomatic
hitler
clouds
mathematical
quit
defended
oriented
##heim
fundamental
hardware
impressive
equally
convince
confederate
guilt
chuck
sliding
magnetic
narrowed
petersburg
bulgaria
otto
phd
skill
hopes
pitcher
reservoir
hearts
automatically
expecting
mysterious
bennett
extensively
imagined
seeds
monitor
fix
##ative
journalism
struggling
signature
ranch
encounter
photographer
observation
protests
influences
calendar
cruz
croatia
locomotive
hughes
naturally
shakespeare
basement
hook
uncredited
faded
theories
approaches
dare
phillips
filling
fury
obama
efficient
arc
deliver
breeding
inducted
leagues
efficiency
axis
montana
eagles
##ked
supplied
instructions
karen
picking
indicating
trap
anchor
practically
christians
tomb
vary
occasional
electronics
lords
readers
newcastle
faint
innovation
collect
situations
engagement
claude
mixture
##feld
peer
tissue
lean
°f
floors
architects
reducing
rope
ottawa
##har
samples
banking
declaration
proteins
resignation
francois
saudi
advocate
exhibited
armor
twins
divorce
##ras
abraham
reviewed
temporarily
matrix
physically
pulse
curled
difficulties
bengal
usage
##ban
riders
certificate
holes
warsaw
distinctive
mutual
customs
circular
eugene
removal
loaded
mere
vulnerable
depicted
generations
dame
heir
enormous
lightly
climbing
pitched
lessons
pilots
nepal
preparing
brad
louise
renowned
##₂
liam
##ably
shaw
brilliant
bills
##nik
fucking
mainland
pleasant
seized
veterans
jerked
fail
brush
radiation
stored
warmth
southeastern
nate
sin
raced
berkeley
joke
athlete
designation
trunk
roland
qualification
heels
artwork
receives
judicial
reserves
##bed
woke
installation
abu
floating
fake
lesser
excitement
interface
concentrated
addressed
characteristic
amanda
saxophone
monk
releasing
egg
dies
interaction
defender
outbreak
glory
loving
sequel
consciousness
awake
ski
enrolled
handling
rookie
brow
somebody
biography
warfare
amounts
contracts
presentation
fabric
dissolved
challenged
meter
psychological
elevated
rally
accurate
##tha
hospitals
undergraduate
specialist
venezuela
exhibit
shed
nursing
protestant
fluid
structural
footage
jared
consistent
prey
##ska
succession
reflect
exile
lebanon
wiped
suspect
resting
integration
preservation
marvel
variant
pirates
sheep
rounded
capita
sailing
colonies
manuscript
deemed
variations
clarke
functional
emerging
boxing
relaxed
curse
azerbaijan
heavyweight
nickname
editorial
rang
grid
tightened
earthquake
flashed
miguel
rushing
##ches
improvements
boxes
brooks
consumption
felix
societies
repeatedly
variation
aids
civic
graphics
professionals
realm
autonomous
receiver
delayed
workshop
militia
chairs
canyon
harsh
extending
lovely
happiness
##jan
stake
eyebrows
embassy
wellington
hannah
corners
bishops
swear
cloth
contents
namely
commenced
stanford
nashville
courage
graphic
commitment
garrison
hamlet
clearing
rebels
attraction
literacy
cooking
ruins
temples
jenny
humanity
celebrate
hasn
freight
sixty
rebel
bastard
newton
deer
##ges
##ching
smiles
delaware
singers
approaching
assists
flame
boulevard
barrel
planted
pursuit
consequences
shallow
invitation
rode
depot
ernest
kane
rod
concepts
preston
topic
chambers
striking
blast
arrives
descendants
montgomery
ranges
worlds
chaos
praise
fewer
sanctuary
mud
programmes
maintaining
harper
bore
handsome
closure
tournaments
nebraska
linda
facade
puts
satisfied
argentine
dale
cork
dome
panama
##yl
tasks
experts
##ates
feeding
equation
engage
bryan
um
quartet
disbanded
sheffield
blocked
gasped
delay
kisses
connects
##non
sts
poured
creator
publishers
guided
ellis
extinct
hug
gaining
##ord
complicated
poll
clenched
investigate
thereby
quantum
spine
cdp
humor
kills
administered
semifinals
encountered
ignore
commentary
##maker
bother
roosevelt
plains
halfway
flowing
cultures
crack
imprisoned
neighboring
airline
gather
wolves
marathon
transformed
cruise
organisations
punch
exhibitions
numbered
alarm
ratings
daddy
silently
##stein
queens
colours
impression
guidance
tactical
##rat
marshal
della
arrow
rested
feared
tender
owns
bitter
advisor
escort
##ides
spare
farms
grants
dragons
encourage
colleagues
cameras
sucked
pile
spirits
prague
statements
suspension
landmark
fence
torture
recreation
bags
permanently
survivors
pond
spy
predecessor
bombing
coup
protecting
transformation
glow
##lands
dug
priests
andrea
feat
barn
jumping
##ologist
casualties
stern
auckland
pipe
serie
revealing
trevor
mercy
spectrum
consist
governing
collaborated
possessed
epic
comprises
blew
shane
lopez
honored
magical
sacrifice
judgment
perceived
hammer
baronet
tune
das
missionary
sheets
neutral
oral
threatening
attractive
shade
aims
seminary
estates
michel
wounds
refugees
manufacturers
mercury
syndrome
porter
##iya
##din
hamburg
identification
upstairs
purse
widened
pause
cared
breathed
affiliate
santiago
prevented
celtic
fisher
recruited
byzantine
reconstruction
farther
diet
sake
spite
sensation
blank
separation
##hon
vladimir
armies
anime
accommodate
orbit
cult
sofia
##ify
founders
sustained
disorder
honours
northeastern
mia
crops
violet
threats
blanket
fires
canton
followers
southwestern
prototype
voyage
assignment
altered
moderate
protocol
pistol
questioned
brass
lifting
authored
doug
dimensional
dynamic
pronounced
grateful
quest
uncomfortable
boom
presidency
stevens
relating
politicians
barrier
quinn
diana
mosque
tribal
palmer
portions
sometime
chester
treasure
bend
millions
reforms
registration
consequently
monitoring
ate
preliminary
brandon
invented
eaten
exterior
intervention
ports
documented
displays
lecture
sally
favourite
vermont
invisible
isle
breed
journalists
relay
speaks
backward
explore
midfielder
actively
stefan
procedures
cannon
blond
kenneth
centered
servants
chains
libraries
malcolm
essex
henri
slavery
##hal
facts
fairy
coached
cassie
cats
washed
cop
announcement
2000s
vinyl
activated
marco
frontier
growled
curriculum
##das
loyal
accomplished
leslie
ritual
kenny
vii
napoleon
hollow
hybrid
jungle
stationed
friedrich
counted
##ulated
platinum
theatrical
seated
col
rubber
glen
diversity
healing
extends
provisions
administrator
columbus
tributary
assured
##uous
prestigious
examined
lectures
grammy
ronald
associations
bailey
allan
essays
flute
believing
consultant
travelling
kerala
yugoslavia
buddy
methodist
burial
centres
batman
discontinued
dock
stockholm
lungs
severely
citing
manga
steal
mumbai
iraqi
robot
celebrity
bride
broadcasts
abolished
pot
joel
overhead
franz
packed
reconnaissance
johann
acknowledged
introduce
handled
doctorate
developments
drinks
alley
palestine
##aki
proceeded
recover
bradley
grain
patch
afford
infection
nationalist
legendary
interchange
virtually
gen
gravity
exploration
amber
vital
wishes
powell
doctrine
elbow
screenplay
##bird
contribute
indonesian
creates
enzyme
kylie
discipline
drops
manila
hunger
layers
suffer
fever
bits
monica
keyboard
manages
##hood
searched
appeals
##bad
testament
grande
reid
##war
beliefs
congo
requiring
casey
regret
streak
rape
depends
syrian
sprint
pound
tourists
upcoming
pub
tense
##els
practiced
nationwide
guild
motorcycle
liz
##zar
chiefs
desired
elena
precious
absorbed
relatives
booth
pianist
##mal
citizenship
exhausted
wilhelm
##ceae
##hed
noting
quarterback
urge
hectares
##gue
holly
blonde
davies
parked
sustainable
stepping
twentieth
airfield
nest
chip
##nell
shaft
paulo
requirement
paradise
tobacco
renewed
vietnamese
suggesting
catching
holmes
enjoying
trips
colt
holder
butterfly
nerve
reformed
cherry
bowling
trailer
carriage
goodbye
appreciate
toy
joshua
interactive
enabled
involve
##kan
collar
determination
bunch
recall
shorts
superintendent
episcopal
frustration
giovanni
nineteenth
laser
privately
array
circulation
##ovic
armstrong
deals
painful
permit
discrimination
aires
retiring
cottage
horizon
ellen
jamaica
ripped
fernando
chapters
patron
lecturer
behaviour
genes
georgian
export
solomon
rivals
seventeen
rodriguez
princeton
independently
sox
arguing
entity
casting
hank
criteria
oakland
geographic
milwaukee
reflection
expanding
conquest
dubbed
halt
brave
brunswick
arched
curtis
divorced
predominantly
somerset
streams
ugly
zoo
horrible
curved
buenos
fierce
dictionary
vector
theological
unions
handful
stability
punjab
segments
altar
ignoring
gesture
monsters
pastor
thighs
unexpected
operators
abruptly
coin
compiled
associates
improving
migration
compact
collegiate
quarterfinals
roster
restore
assembled
hurry
oval
##cies
flags
martha
victories
sharply
##rated
argues
deadly
drawings
symbols
performer
griffin
restrictions
editing
andrews
journals
arabia
compositions
dee
pierce
removing
hindi
casino
runway
civilians
minds
##zation
refuge
rent
retain
potentially
conferences
suburban
conducting
descended
massacre
ammunition
terrain
fork
souls
counts
chelsea
durham
drives
cab
perth
realizing
palestinian
finn
simpson
##dal
betty
moreover
particles
cardinals
tent
evaluation
extraordinary
inscription
wednesday
chloe
maintains
panels
ashley
trucks
##nation
cluster
sunlight
strikes
dialect
tucked
collecting
##mas
##sville
quoted
evan
franco
aria
buying
cleaning
closet
provision
apollo
clinic
rat
necessarily
##ising
venues
flipped
cent
spreading
trustees
checking
authorized
disappointed
##ado
notion
duration
trumpet
hesitated
topped
brussels
rolls
theoretical
hint
define
aggressive
repeat
wash
peaceful
optical
width
allegedly
mcdonald
strict
##illa
investors
jam
witnesses
sounding
miranda
michelle
hugo
harmony
valid
lynn
glared
nina
headquartered
diving
boarding
gibson
albanian
marsh
routine
dealt
enhanced
intelligent
substance
targeted
enlisted
discovers
spinning
observations
pissed
smoking
capitol
varied
costume
seemingly
indies
compensation
surgeon
thursday
arsenal
westminster
suburbs
rid
anglican
##ridge
knots
foods
alumni
lighter
fraser
whoever
portal
scandal
gavin
advised
instructor
flooding
terrorist
teenage
interim
senses
duck
teen
thesis
abby
eager
overcome
newport
glenn
rises
shame
prompted
priority
forgot
bomber
nicolas
protective
cartoon
katherine
breeze
lonely
trusted
henderson
richardson
relax
palms
remarkable
legends
cricketer
essay
ordained
edmund
rifles
trigger
##uri
##away
sail
alert
audiences
penn
sussex
siblings
pursued
indianapolis
resist
rosa
consequence
succeed
avoided
##ulation
inland
##tie
##nna
counsel
profession
chronicle
hurried
##una
eyebrow
eventual
bleeding
innovative
cure
committees
accounting
scope
hardy
heather
tenor
gut
herald
codes
tore
scales
wagon
luxury
tin
prefer
fountain
triangle
bonds
darling
convoy
dried
traced
beings
troy
accidentally
slam
findings
smelled
joey
lawyers
outcome
steep
bosnia
configuration
shifting
toll
brook
performers
lobby
philosophical
construct
shrine
aggregate
cox
phenomenon
savage
insane
solely
reynolds
nationally
holdings
consideration
enable
edgar
fights
relegation
chances
atomic
hub
conjunction
awkward
reactions
currency
finale
kumar
underwent
steering
elaborate
gifts
comprising
melissa
veins
reasonable
sunshine
solve
trails
inhabited
elimination
ethics
huh
ana
molly
consent
apartments
layout
marines
hunters
bulk
##oma
hometown
##wall
##mont
cracked
reads
neighbouring
withdrawn
admission
wingspan
damned
anthology
lancashire
brands
batting
forgive
cuban
awful
##lyn
dimensions
imagination
dante
tracking
desperately
goalkeeper
##yne
groaned
workshops
confident
burton
gerald
milton
circus
uncertain
slope
copenhagen
sophia
fog
philosopher
portraits
accent
cycling
varying
gripped
larvae
garrett
specified
scotia
mature
luther
kurt
##kes
aerial
ferdinand
heated
transported
##shan
safely
nonetheless
##orn
##gal
motors
demanding
##sburg
startled
##brook
ally
generate
caps
ghana
stained
mentions
beds
afterward
##bling
utility
##iro
richards
conspiracy
conscious
shining
footsteps
observer
cyprus
urged
loyalty
developer
probability
olive
upgraded
gym
miracle
insects
graves
ourselves
hydrogen
katie
tickets
poets
planes
prevention
witnessed
dense
randy
warehouse
monroe
archived
elderly
investigations
alec
granite
mineral
conflicts
controlling
aboriginal
mechanics
stan
stark
rhode
skirt
bombs
respected
##horn
imposed
limestone
deny
nominee
memphis
grabbing
disabled
amusement
frankfurt
corn
referendum
varies
slowed
disk
firms
unconscious
incredible
clue
sue
##zhou
twist
##cio
joins
idaho
chad
developers
computing
destroyer
mortal
tucker
kingston
choices
carson
whitney
geneva
pretend
dimension
staged
plateau
##une
freestyle
rovers
##ids
tristan
classroom
prospect
##hus
honestly
diploma
lied
thermal
auxiliary
feast
unlikely
iata
morocco
pounding
treasury
lithuania
considerably
dish
geological
matching
stumbled
destroying
marched
brien
advances
nicole
settling
measuring
directing
##mie
tuesday
bassist
capabilities
stunned
fraud
torpedo
##phone
anton
wisdom
surveillance
ruined
##ulate
lawsuit
healthcare
theorem
halls
trend
aka
horizontal
dozens
acquire
lasting
swim
hawk
gorgeous
fees
vicinity
decrease
adoption
tactics
##ography
pakistani
##ole
draws
##hall
willie
burke
heath
algorithm
integral
powder
elliott
brigadier
jackie
tate
varieties
darker
##cho
lately
cigarette
specimens
adds
##ensis
##inger
exploded
finalist
murders
wilderness
arguments
nicknamed
acceptance
onwards
manufacture
robertson
jets
tampa
enterprises
loudly
composers
nominations
malta
inquiry
automobile
hosting
viii
rays
tilted
grief
museums
strategies
furious
euro
equality
cohen
poison
surrey
wireless
governed
ridiculous
moses
##esh
vanished
barnes
attract
morrison
istanbul
##iness
absent
rotation
petition
janet
##logical
satisfaction
custody
deliberately
observatory
comedian
surfaces
pinyin
novelist
strictly
canterbury
oslo
monks
embrace
jealous
photograph
continent
dorothy
marina
excess
holden
allegations
explaining
stack
avoiding
lance
storyline
majesty
poorly
spike
bradford
raven
travis
classics
proven
voltage
pillow
fists
butt
interpreted
gage
telegraph
lens
promising
expelled
casual
collector
zones
silly
nintendo
##kh
downstairs
chef
suspicious
afl
flies
vacant
uganda
pregnancy
condemned
lutheran
estimates
cheap
decree
saxon
proximity
stripped
idiot
deposits
contrary
presenter
magnus
glacier
offense
edwin
##ori
upright
##long
bolt
##ois
toss
geographical
##izes
environments
delicate
marking
abstract
xavier
nails
windsor
plantation
occurring
equity
saskatchewan
fears
drifted
sequences
vegetation
revolt
##stic
sooner
fusion
opposing
nato
skating
secretly
ruin
lease
flora
anxiety
##ological
##mia
taxi
emmy
frost
rainbow
compounds
foundations
rainfall
assassination
nightmare
dominican
achievements
deserve
orlando
intact
armenia
##nte
calgary
valentine
marion
proclaimed
theodore
bells
courtyard
thigh
gonzalez
console
troop
minimal
everyday
supporter
terrorism
buck
openly
presbyterian
activists
carpet
##iers
rubbing
uprising
cute
conceived
legally
##cht
millennium
cello
velocity
rescued
cardiff
rex
concentrate
senators
beard
rendered
glowing
battalions
scouts
competitors
sculptor
catalogue
arctic
ion
raja
bicycle
glancing
lawn
##woman
gentleman
lighthouse
publish
predicted
calculated
variants
##gne
strain
winston
deceased
touchdowns
brady
caleb
sinking
echoed
crush
hon
blessed
protagonist
hayes
endangered
magnitude
editors
##tine
estimate
responsibilities
##mel
backup
laying
consumed
sealed
zurich
lovers
frustrated
##eau
ahmed
kicking
treasurer
biblical
refuse
terrified
pump
agrees
genuine
imprisonment
refuses
plymouth
lou
##nen
tara
trembling
antarctic
ton
learns
##tas
crap
crucial
faction
atop
##borough
wrap
lancaster
odds
hopkins
erik
lyon
##eon
bros
snap
locality
empress
crowned
cal
acclaimed
chuckled
clara
sends
mild
towel
##а
wishing
assuming
interviewed
##bal
interactions
eden
cups
helena
indie
beck
##fire
batteries
filipino
wizard
parted
traces
##born
rows
idol
albany
delegates
##ees
##sar
discussions
notre
instructed
belgrade
highways
suggestion
lauren
possess
orientation
alexandria
abdul
beats
salary
reunion
ludwig
alright
wagner
intimate
pockets
slovenia
hugged
brighton
merchants
cruel
stole
trek
slopes
repairs
enrollment
politically
underlying
promotional
counting
boeing
isabella
naming
##и
keen
bacteria
listing
separately
belfast
ussr
lithuanian
anybody
ribs
sphere
martinez
cock
embarrassed
proposals
fragments
nationals
##wski
premises
fin
alpine
matched
freely
bounded
jace
sleeve
pier
populated
evident
##like
frances
flooded
##dle
frightened
pour
trainer
framed
visitor
challenging
pig
wickets
##fold
infected
##pes
arose
reward
ecuador
oblast
vale
shuttle
##usa
bach
rankings
forbidden
cornwall
accordance
salem
consumers
bruno
fantastic
toes
machinery
resolved
julius
remembering
propaganda
iceland
bombardment
tide
contacts
wives
##rah
concerto
macdonald
albania
implement
daisy
tapped
sudan
helmet
mistress
crop
sunk
finest
##craft
hostile
boxer
fr
paths
adjusted
habit
ballot
supervision
soprano
bullets
wicked
sunset
regiments
disappear
lamp
performs
##gia
rabbit
digging
incidents
entries
##cion
dishes
introducing
##ati
##fied
freshman
slot
jill
tackles
baroque
backs
##iest
lone
sponsor
destiny
altogether
convert
##aro
consensus
shapes
demonstration
basically
feminist
auction
artifacts
##bing
strongest
halifax
allmusic
mighty
smallest
precise
alexandra
viola
##los
##ille
manuscripts
##illo
dancers
ari
managers
monuments
blades
barracks
springfield
maiden
consolidated
electron
berry
airing
wheat
nobel
inclusion
blair
payments
geography
bee
eleanor
react
##hurst
afc
manitoba
lineup
fitness
recreational
investments
airborne
disappointment
##dis
edmonton
viewing
renovation
infant
bankruptcy
roses
aftermath
pavilion
carpenter
withdrawal
ladder
discussing
popped
reliable
agreements
rochester
##abad
curves
bombers
rao
reverend
decreased
choosing
stiff
consulting
naples
crawford
tracy
ribbon
cops
crushed
deciding
unified
teenager
accepting
flagship
poles
sanchez
inspection
revived
skilled
induced
exchanged
flee
locals
tragedy
swallow
hanna
demonstrate
##ela
salvador
flown
contestants
civilization
##ines
rhodes
fletcher
hector
knocking
considers
nash
mechanisms
sensed
mentally
walt
unclear
##eus
renovated
madame
crews
governmental
undertaken
monkey
##ben
##ato
fatal
armored
copa
caves
governance
grasp
perception
certification
froze
damp
tugged
wyoming
##rg
##ero
newman
nerves
curiosity
graph
##ami
withdraw
tunnels
dull
meredith
moss
exhibits
neighbors
communicate
accuracy
explored
raiders
republicans
secular
kat
superman
penny
criticised
freed
conviction
ham
likewise
delegation
gotta
doll
promises
technological
myth
nationality
resolve
convent
sharon
dig
sip
coordinator
entrepreneur
fold
##dine
capability
councillor
synonym
blown
swan
cursed
jonas
haired
sofa
canvas
keeper
rivalry
##hart
rapper
speedway
swords
postal
maxwell
estonia
potter
recurring
errors
##oni
cognitive
##²
claws
nadu
roberto
bce
wrestler
ellie
infinite
ink
##tia
presumably
finite
staircase
noel
patricia
nacional
chill
eternal
preventing
prussia
fossil
limbs
##logist
ernst
frog
perez
rene
prussian
##ios
molecules
regulatory
answering
opinions
sworn
lengths
supposedly
hypothesis
upward
habitats
seating
ancestors
drank
yield
researcher
modest
##var
mothers
peered
voluntary
homeland
acclaim
##igan
static
valve
luxembourg
alto
carroll
receptor
norton
ambulance
##tian
johnston
catholics
depicting
jointly
elephant
gloria
mentor
badge
ahmad
distinguish
remarked
councils
precisely
allison
advancing
detection
crowded
cooperative
ankle
mercedes
dagger
surrendered
pollution
commit
subway
jeffrey
sculptures
provider
##fication
membrane
timothy
rectangular
fiscal
heating
teammate
basket
particle
anonymous
deployment
missiles
courthouse
proportion
shoe
sec
complaints
forbes
blacks
abandon
remind
sizes
overwhelming
autobiography
natalie
##awa
risks
contestant
countryside
babies
scorer
invaded
enclosed
proceed
hurling
disorders
##cu
reflecting
continuously
cruiser
graduates
freeway
investigated
ore
deserved
maid
blocking
phillip
jorge
shakes
dove
mann
variables
lacked
burden
accompanying
consistently
organizing
provisional
complained
endless
tubes
juice
georges
krishna
mick
thriller
laps
arcade
sage
snail
shannon
laurence
seoul
vacation
presenting
hire
churchill
surprisingly
prohibited
savannah
technically
##oli
##lessly
testimony
suited
speeds
toys
romans
flowering
measurement
talented
kay
settings
charleston
expectations
shattered
achieving
triumph
ceremonies
portsmouth
lanes
mandatory
loser
stretching
cologne
realizes
seventy
cornell
careers
webb
##ulating
americas
budapest
ava
suspicion
yo
conrad
sterling
jessie
rector
##az
transform
organize
loans
christine
volcanic
warrant
slender
summers
subfamily
newer
danced
dynamics
rhine
proceeds
heinrich
gastropod
commands
sings
facilitate
easter
positioned
responses
expense
fruits
yanked
imported
25th
velvet
vic
primitive
tribune
baldwin
neighbourhood
donna
rip
hay
##uro
espn
welcomed
##aria
qualifier
glare
highland
timing
##cted
shells
eased
geometry
louder
exciting
slovakia
##iz
savings
prairie
marching
rafael
tonnes
##lled
curtain
preceding
heal
greene
worthy
##pot
detachment
bury
sherman
##eck
reinforced
seeks
bottles
contracted
duchess
outfit
walsh
mickey
geoffrey
archer
squeeze
dawson
eliminate
invention
##enberg
neal
##eth
stance
dealer
coral
maple
retire
simplified
hid
watts
backwards
jules
##oke
genesis
frames
rebounds
burma
woodland
moist
santos
whispers
drained
subspecies
streaming
ulster
burnt
correspondence
maternal
gerard
denis
stealing
genius
duchy
##oria
inaugurated
momentum
suits
placement
sovereign
clause
thames
##hara
confederation
reservation
sketch
yankees
lets
rotten
charm
hal
verses
commercially
dot
salon
citation
adopt
winnipeg
mist
allocated
cairo
jenkins
interference
objectives
##wind
portfolio
armoured
sectors
initiatives
integrity
exercises
robe
tap
gazed
##tones
distracted
rulers
favorable
jerome
tended
cart
factories
##eri
diplomat
valued
gravel
charitable
calvin
exploring
shepherd
terrace
pupil
##ural
reflects
##rch
governors
shelf
depths
##nberg
trailed
crest
tackle
##nian
hatred
##kai
clare
makers
ethiopia
longtime
detected
embedded
lacking
slapped
rely
thomson
anticipation
morton
successive
agnes
screenwriter
straightened
philippe
playwright
haunted
licence
iris
intentions
sutton
logical
correctly
##weight
branded
licked
tipped
silva
ricky
narrator
requests
##ents
greeted
supernatural
cow
##wald
lung
refusing
employer
strait
gaelic
liner
##piece
zoe
sabha
##mba
driveway
harvest
prints
bates
reluctantly
threshold
algebra
ira
wherever
coupled
assumption
picks
designers
raids
gentlemen
roller
blowing
leipzig
locks
screw
dressing
strand
##lings
scar
dwarf
depicts
##nu
nods
differ
boris
##eur
flip
##gie
mob
invested
questioning
applying
shout
##sel
gameplay
blamed
illustrations
bothered
weakness
rehabilitation
##zes
envelope
rumors
miners
leicester
subtle
kerry
ferguson
premiership
bengali
prof
catches
remnants
dana
##rily
shouting
presidents
baltic
ought
ghosts
dances
sailors
shirley
fancy
dominic
##bie
madonna
##rick
bark
buttons
gymnasium
ashes
liver
toby
oath
providence
doyle
evangelical
nixon
cement
carnegie
embarked
hatch
surroundings
guarantee
needing
pirate
essence
filter
crane
hammond
projected
immune
percy
twelfth
regent
doctoral
damon
mikhail
##ichi
critically
elect
realised
abortion
screening
mythology
steadily
frown
nottingham
kirk
wa
minneapolis
##rra
module
algeria
nautical
encounters
surprising
statues
availability
shirts
pie
alma
brows
munster
mack
soup
crater
tornado
sanskrit
cedar
explosive
bordered
dixon
planets
stamp
exam
happily
##bble
carriers
kidnapped
accommodation
emigrated
##met
knockout
correspondent
violation
profits
peaks
lang
specimen
agenda
ancestry
pottery
spelling
equations
obtaining
ki
linking
debris
asylum
buddhism
##ants
gazette
dental
eligibility
fathers
averaged
zimbabwe
francesco
coloured
hissed
translator
lynch
mandate
humanities
mackenzie
uniforms
##iana
asset
fitting
samantha
genera
rim
beloved
shark
riot
entities
expressions
indo
carmen
slipping
owing
abbot
neighbor
sidney
rats
recommendations
encouraging
squadrons
anticipated
commanders
conquered
donations
diagnosed
divide
##iva
guessed
decoration
vernon
auditorium
revelation
conversations
##kers
##power
herzegovina
dash
alike
protested
lateral
herman
accredited
##gent
freeman
mel
fiji
crow
crimson
##rine
livestock
##pped
humanitarian
bored
oz
whip
##lene
##ali
legitimate
alter
grinning
spelled
anxious
oriental
wesley
##nin
##hole
carnival
controller
detect
##ssa
bowed
educator
kosovo
macedonia
##sin
occupy
mastering
stephanie
janeiro
para
unaware
nurses
noon
hopefully
ranger
combine
sociology
polar
rica
##eer
neill
##sman
holocaust
doubled
lust
decent
cooling
unveiled
nsw
homer
chapman
meyer
dive
mae
reagan
expertise
##gled
darwin
brooke
sided
prosecution
investigating
comprised
petroleum
genres
reluctant
differently
trilogy
johns
vegetables
corpse
highlighted
lounge
pension
unsuccessfully
elegant
aided
ivory
beatles
amelia
cain
dubai
immigrant
babe
underwater
combining
mumbled
atlas
horns
accessed
ballad
physicians
homeless
gestured
rpm
freak
louisville
corporations
patriots
prizes
rational
warn
modes
decorative
overnight
troubled
phantom
monarch
sheer
##dorf
generals
guidelines
organs
addresses
enhance
curling
parishes
cord
##kie
caesar
deutsche
bavaria
coleman
cyclone
##eria
bacon
petty
##yama
##old
hampton
diagnosis
throws
complexity
rita
disputed
##₃
pablo
marketed
trafficking
##ulus
examine
plague
formats
vault
faithful
##bourne
webster
highlights
##ient
phones
vacuum
sandwich
modeling
##gated
bolivia
clergy
qualities
isabel
##nas
##ars
wears
screams
reunited
annoyed
bra
##ancy
##rate
differential
transmitter
tattoo
container
poker
##och
excessive
resides
cowboys
##tum
augustus
trash
providers
statute
retreated
balcony
reversed
void
storey
preceded
masses
leap
laughs
neighborhoods
wards
schemes
falcon
santo
battlefield
ronnie
lesbian
venus
##dian
beg
sandstone
daylight
punched
gwen
analog
stroked
acceptable
measurements
toxic
##kel
adequate
surgical
economist
parameters
varsity
##sberg
quantity
##chy
##rton
countess
generating
precision
diamonds
expressway
##ı
uruguay
talents
galleries
expenses
scanned
colleague
outlets
ryder
lucien
##ila
paramount
syracuse
dim
fangs
gown
sweep
##sie
missionaries
websites
sentences
adviser
val
trademark
spells
##plane
patience
starter
slim
##borg
toe
incredibly
shoots
elliot
nobility
##wyn
cowboy
endorsed
gardner
tendency
persuaded
organisms
emissions
kazakhstan
amused
boring
chips
themed
##hand
constantinople
chasing
systematic
guatemala
borrowed
erin
carey
##hard
highlands
struggles
##ifying
##ced
exceptions
develops
enlarged
kindergarten
castro
##rina
leigh
zombie
juvenile
##most
consul
sailor
hyde
clarence
intensive
pinned
nasty
useless
jung
clayton
stuffed
exceptional
ix
apostolic
exempt
swinging
cove
religions
shields
dairy
bypass
pursuing
joyce
bombay
chassis
southampton
chat
interact
redesignated
##pen
nascar
pray
salmon
rigid
regained
malaysian
grim
publicity
constituted
capturing
toilet
delegate
purely
tray
drift
loosely
striker
weakened
trinidad
mitch
itv
defines
transmitted
scarlet
nodding
fitzgerald
narrowly
tooth
standings
virtue
##₁
##wara
##cting
gloves
lid
hurting
conservatory
##pel
sinclair
reopened
sympathy
nigerian
strode
advocated
optional
chronic
discharge
suck
compatible
laurel
stella
fails
wage
dodge
informal
sorts
levi
buddha
villagers
chronicles
heavier
summoned
gateway
eleventh
jewelry
translations
accordingly
seas
##ency
fiber
pyramid
cubic
dragging
##ista
caring
##ops
contacted
lunar
lisbon
patted
sacramento
theft
madagascar
subtropical
disputes
holidays
piper
willow
mare
cane
newfoundland
benny
companions
raj
observe
roar
charming
plaque
tibetan
fossils
enacted
manning
bubble
tanzania
##eda
##hir
funk
swamp
deputies
cloak
ufc
scenario
par
scratch
metals
anthem
guru
engaging
specially
##boat
dialects
nineteen
cecil
duet
disability
unofficial
##lies
defunct
moonlight
drainage
surname
switching
conservatives
mammals
knox
broadcaster
sidewalk
cope
##ried
benson
princes
peterson
##sal
bedford
sharks
eli
wreck
alberto
gasp
archaeology
lgbt
teaches
securities
madness
compromise
waving
coordination
davidson
visions
leased
possibilities
eighty
fernandez
enthusiasm
assassin
sponsorship
reviewer
kingdoms
estonian
laboratories
##fy
##nal
applies
verb
celebrations
##zzo
rowing
lightweight
sadness
submit
balanced
dude
explicitly
metric
magnificent
mound
brett
mohammad
mistakes
irregular
sanders
betrayed
shipped
surge
##enburg
reporters
termed
georg
pity
verbal
bulls
abbreviated
enabling
appealed
sicily
sting
heel
sweetheart
bart
spacecraft
brutal
monarchy
aberdeen
cameo
diane
survivor
clyde
##aries
complaint
##makers
clarinet
delicious
chilean
karnataka
coordinates
panties
##rst
pretending
dramatically
kiev
tends
distances
catalog
launching
instances
telecommunications
portable
lindsay
vatican
##eim
angles
aliens
marker
stint
screens
bolton
##rne
judy
wool
benedict
plasma
europa
imaging
filmmaker
swiftly
contributor
opted
stamps
apologize
financing
butter
gideon
sophisticated
alignment
avery
chemicals
yearly
speculation
prominence
professionally
immortal
institutional
inception
wrists
identifying
tribunal
derives
gains
papal
preference
linguistic
vince
operative
brewery
##ont
unemployment
boyd
##ured
##outs
albeit
prophet
##rad
quarterly
asteroid
cleaned
radius
temper
##llen
telugu
jerk
viscount
##ote
glimpse
##aya
yacht
hawaiian
baden
laptop
readily
##gu
monetary
offshore
scots
watches
##yang
##arian
upgrade
needle
lea
encyclopedia
flank
fingertips
delight
teachings
confirm
roth
beaches
midway
winters
##iah
teasing
daytime
beverly
gambling
##backs
regulated
clement
hermann
tricks
knot
##shing
##uring
##vre
detached
ecological
owed
specialty
byron
inventor
bats
stays
screened
unesco
midland
trim
affection
##ander
jess
thoroughly
feedback
chennai
strained
heartbeat
wrapping
overtime
pleaded
##sworth
leisure
oclc
##tate
##ele
feathers
angelo
thirds
nuts
surveys
clever
gill
commentator
##dos
darren
rides
gibraltar
dissolution
dedication
shin
meals
saddle
elvis
reds
chaired
taller
appreciation
functioning
niece
favored
advocacy
robbie
criminals
suffolk
yugoslav
passport
constable
congressman
hastings
##rov
consecrated
sparks
ecclesiastical
confined
##ovich
muller
floyd
nora
paved
cumberland
ned
saga
spiral
appreciated
collaborative
treating
similarities
feminine
finishes
##ib
jade
import
##hot
champagne
mice
securing
celebrities
helsinki
attributes
##gos
cousins
phases
ache
lucia
gandhi
submission
vicar
spear
shine
tasmania
biting
detention
constitute
tighter
seasonal
##gus
terrestrial
matthews
effectiveness
parody
philharmonic
##onic
strangers
encoded
consortium
guaranteed
regards
shifts
tortured
collision
supervisor
inform
broader
insight
theaters
armour
emeritus
blink
incorporates
mapping
handball
flexible
##nta
substantially
generous
thief
carr
loses
prose
ucla
romeo
generic
metallic
realization
damages
commissioners
zach
default
helicopters
lengthy
stems
partnered
spectators
rogue
indication
penalties
teresa
sen
##tric
dalton
##wich
irving
photographic
##vey
deaf
peters
excluded
unsure
##vable
patterson
crawled
##zio
resided
whipped
latvia
slower
ecole
pipes
employers
maharashtra
comparable
textile
pageant
##gel
alphabet
binary
irrigation
chartered
choked
antoine
offs
waking
supplement
quantities
demolition
regain
locate
urdu
folks
scary
andreas
whites
##ava
classrooms
mw
aesthetic
publishes
valleys
guides
cubs
johannes
bryant
conventions
affecting
##itt
drain
awesome
isolation
prosecutor
ambitious
apology
captive
downs
atmospheric
lorenzo
aisle
beef
foul
##onia
kidding
composite
disturbed
illusion
natives
##ffer
rockets
riverside
wartime
painters
adolf
melted
uncertainty
simulation
hawks
progressed
meantime
builder
spray
breach
unhappy
regina
russians
determining
tram
##quin
aging
garion
rented
mister
diaz
terminated
clip
depend
nervously
disco
owe
defenders
shiva
notorious
disbelief
shiny
worcester
##gation
##yr
trailing
undertook
islander
belarus
limitations
watershed
fuller
overlooking
utilized
raphael
synthetic
breakdown
klein
##nate
moaned
memoir
lamb
practicing
##erly
cellular
arrows
exotic
witches
charted
rey
hut
hierarchy
subdivision
freshwater
giuseppe
aloud
reyes
qatar
marty
sideways
utterly
sexually
jude
prayers
mccarthy
softball
blend
damien
##gging
##metric
wholly
erupted
lebanese
negro
revenues
tasted
comparative
teamed
transaction
labeled
maori
sovereignty
parkway
trauma
gran
malay
advancement
descendant
buzz
salvation
inventory
symbolic
##making
antarctica
mps
##bro
mohammed
myanmar
holt
submarines
tones
##lman
locker
patriarch
bangkok
emerson
remarks
predators
kin
afghan
confession
norwich
rental
emerge
advantages
##zel
##hold
shortened
storms
aidan
##matic
autonomy
compliance
##quet
dudley
##osis
motto
documentation
summary
professors
spectacular
christina
archdiocese
flashing
innocence
remake
##dell
psychic
reef
scare
employ
sticks
meg
gus
leans
accompany
bergen
tomas
doom
wages
pools
##bes
breasts
scholarly
alison
outline
brittany
breakthrough
willis
realistic
##cut
##boro
competitor
##stan
pike
picnic
designing
commercials
washing
villain
skiing
costumes
auburn
halted
executives
logistics
cycles
vowel
applicable
barrett
exclaimed
eurovision
eternity
ramon
##umi
modifications
sweeping
disgust
torch
aviv
ensuring
rude
dusty
sonic
donovan
outskirts
pathway
##band
##gun
disciplines
acids
cadet
paired
sketches
##sive
marriages
##⁺
folding
peers
slovak
implies
admired
##beck
1880s
leopold
instinct
attained
weston
megan
horace
##ination
dorsal
ingredients
evolutionary
complications
deity
lethal
brushing
levy
deserted
institutes
posthumously
delivering
telescope
coronation
motivated
rapids
luc
flicked
pays
volcano
tanner
weighed
##nica
crowds
frankie
gifted
addressing
granddaughter
winding
##rna
constantine
gomez
##front
landscapes
rudolf
anthropology
slate
werewolf
astronomy
circa
rouge
dreaming
sack
knelt
drowned
naomi
prolific
tracked
freezing
herb
agony
randall
twisting
wendy
deposit
touches
vein
wheeler
##bbled
batted
retaining
tire
presently
compare
specification
daemon
nigel
##grave
merry
recommendation
czechoslovakia
sandra
roma
##sts
lambert
inheritance
sheikh
winchester
cries
examining
##yle
comeback
cuisine
nave
##iv
retrieve
tomatoes
barker
polished
defining
irene
lantern
personalities
begging
tract
swore
##gic
omaha
brotherhood
haiti
##ots
exeter
##ete
##zia
steele
dumb
pearson
surveyed
elisabeth
trends
fritz
bugs
fraction
calmly
viking
##birds
tug
inserted
unusually
##ield
confronted
distress
crashing
brent
turks
resign
##olo
cambodia
gabe
sauce
##kal
evelyn
extant
clusters
quarry
teenagers
luna
##lers
##ister
affiliation
drill
##ashi
panthers
scenic
libya
anita
strengthen
inscriptions
##cated
lace
sued
judith
riots
##uted
mint
##eta
preparations
midst
dub
challenger
##vich
mock
displaced
wicket
breaths
enables
schmidt
analyst
##lum
highlight
automotive
axe
josef
newark
sufficiently
resembles
50th
##pal
flushed
mum
traits
##ante
commodore
incomplete
warming
titular
ceremonial
ethical
celebrating
eighteenth
lima
medalist
mobility
strips
snakes
miniature
zagreb
barton
escapes
umbrella
automated
doubted
differs
cooled
georgetown
dresden
cooked
fade
wyatt
jacobs
carlton
abundant
stereo
madras
inning
spur
malayalam
begged
osaka
groan
escaping
charging
dose
##aj
bud
papa
communists
advocates
edged
tri
resemble
peaking
necklace
fried
montenegro
saxony
goose
glances
stuttgart
curator
recruit
grocery
sympathetic
##tting
##fort
lotus
randolph
ancestor
##rand
succeeding
jupiter
macedonian
##heads
hiking
handing
fischer
##itive
garbage
##pies
prone
singular
papua
inclined
attractions
italia
pouring
motioned
grandma
garnered
jacksonville
corp
ego
ringing
aluminum
##hausen
ordering
##foot
drawer
traders
synagogue
##kawa
resistant
wandering
fragile
fiona
teased
hardcore
soaked
jubilee
decisive
exposition
mercer
poster
valencia
hale
kuwait
##ises
##wr
##eed
tavern
gamma
johan
##uer
airways
gil
vocational
domains
torres
generator
folklore
outcomes
##keeper
canberra
shooter
beams
confrontation
##gram
aligned
forestry
pipeline
jax
motorway
conception
decay
coffin
##cott
stalin
escorted
minded
##nam
sitcom
purchasing
twilight
veronica
additions
passive
tensions
straw
frequencies
refugee
cultivation
##iate
christie
clary
bulletin
crept
disposal
##rich
##zong
processor
crescent
##rol
emphasized
whale
nazis
aurora
dwelling
hauled
sponsors
toledo
ideology
theatres
tessa
cerambycidae
saves
turtle
cone
suspects
kara
rusty
yelling
greeks
mozart
shades
cocked
participant
shire
spit
freeze
necessity
##cos
inmates
nielsen
councillors
loaned
uncommon
omar
peasants
botanical
offspring
daniels
formations
jokes
pioneers
sigma
licensing
##sus
wheelchair
polite
liquor
pratt
trustee
##uta
forewings
balloon
kilometre
camping
explicit
casually
shawn
foolish
teammates
hassan
carrie
judged
satisfy
vanessa
knives
selective
flowed
##lice
stressed
eliza
mathematician
cease
cultivated
##roy
commissions
browns
##ania
destroyers
sheridan
meadow
##rius
minerals
##cial
downstream
clash
gram
memoirs
ventures
baha
seymour
archie
midlands
edith
fare
flynn
invite
canceled
tiles
stabbed
boulder
incorporate
amended
camden
facial
mollusk
unreleased
descriptions
grabs
raises
ramp
shiver
##rose
coined
pioneering
tunes
qing
warwick
tops
melanie
giles
##rous
wandered
##inal
annexed
30th
unnamed
##ished
organizational
airplane
normandy
stoke
whistle
blessing
violations
chased
holders
shotgun
##ctic
reactor
##vik
tires
tearing
shores
fortified
mascot
constituencies
columnist
productive
tibet
##rta
lineage
hooked
tapes
judging
cody
##gger
hansen
kashmir
triggered
##eva
solved
cliffs
##tree
resisted
anatomy
protesters
transparent
implied
##iga
injection
mattress
excluding
##mbo
defenses
helpless
devotion
##elli
growl
liberals
weber
phenomena
atoms
plug
##iff
mortality
apprentice
howe
convincing
swimmer
barber
leone
promptly
sodium
def
nowadays
arise
##oning
gloucester
corrected
dignity
norm
erie
##ders
elders
evacuated
compression
##yar
hartford
backpack
reasoning
accepts
24th
wipe
millimetres
marcel
##oda
dodgers
albion
overwhelmed
aerospace
oaks
showcase
acknowledge
recovering
nolan
ashe
hurts
geology
fashioned
disappearance
farewell
swollen
shrug
marquis
wimbledon
rue
commemorate
reduces
experiencing
inevitable
calcutta
##court
murderer
sticking
fisheries
imagery
bloom
##inus
gustav
hesitation
memorable
viral
beans
accidents
tunisia
antenna
spilled
consort
treatments
aye
perimeter
##gard
donation
hostage
migrated
banker
addiction
apex
lil
trout
##ously
conscience
##nova
rams
sands
genome
passionate
troubles
##lets
amid
##ibility
##ret
higgins
exceed
vikings
##vie
payne
##zan
muscular
defendant
sucking
##wal
ibrahim
fuselage
claudia
vfl
europeans
snails
interval
##garh
preparatory
statewide
tasked
lacrosse
viktor
##lation
angola
##hra
flint
implications
employs
teens
patrons
stall
weekends
barriers
scrambled
nucleus
tehran
jenna
parsons
lifelong
robots
displacement
##bles
precipitation
knuckles
clutched
marrying
ecology
marx
accusations
declare
scars
kolkata
mat
meadows
bermuda
skeleton
finalists
vintage
crawl
coordinate
affects
subjected
orchestral
mistaken
mirrors
dipped
relied
arches
candle
##nick
incorporating
wildly
fond
basilica
owl
fringe
rituals
whispering
stirred
feud
tertiary
slick
goat
honorable
whereby
ricardo
stripes
parachute
adjoining
submerged
synthesizer
##gren
intend
positively
ninety
phi
beaver
partition
fellows
alexis
prohibition
carlisle
bizarre
fraternity
doubts
icy
aquatic
sneak
sonny
combines
airports
crude
supervised
spatial
alfonso
##bic
corrupt
scan
undergo
##ams
disabilities
colombian
comparing
dolphins
perkins
reprinted
unanimous
bounced
hairs
underworld
midwest
semester
bucket
paperback
miniseries
coventry
demise
##leigh
demonstrations
sensor
rotating
##hler
arrange
soils
##idge
hyderabad
labs
brakes
grandchildren
##nde
negotiated
rover
ferrari
continuation
directorate
augusta
stevenson
counterpart
gore
##rda
nursery
rican
ave
collectively
broadly
pastoral
repertoire
asserted
discovering
nordic
styled
fiba
cunningham
harley
middlesex
survives
tumor
tempo
zack
aiming
lok
urgent
##nto
devils
contractor
turin
##wl
bliss
repaired
simmons
moan
astronomical
negotiate
lyric
1890s
lara
bred
clad
angus
pbs
engineered
posed
hernandez
possessions
elbows
psychiatric
strokes
confluence
electorate
lifts
campuses
lava
alps
##ution
##date
physicist
woody
##ographic
##itis
juliet
reformation
sparhawk
complement
suppressed
jewel
##½
floated
##kas
continuity
sadly
##ische
inability
melting
scanning
paula
flour
judaism
safer
vague
solving
curb
##stown
financially
gable
bees
expired
miserable
cassidy
dominion
cupped
robbery
facto
amos
warden
resume
tallest
marvin
pounded
declaring
gasoline
##aux
darkened
sophomore
##mere
erection
gossip
televised
risen
dial
##eu
pillars
passages
profound
arabian
ashton
silicon
nail
##lated
##hardt
fleming
firearms
ducked
circuits
blows
waterloo
titans
fireplace
cheshire
financed
activation
algorithms
constituent
catcher
cherokee
partnerships
sexuality
platoon
tragic
vivian
guarded
whiskey
meditation
poetic
##nga
porto
listeners
dominance
kendra
mona
chandler
factions
22nd
salisbury
attitudes
derivative
##ido
##haus
intake
paced
javier
illustrator
barrels
bias
cockpit
burnett
dreamed
ensuing
receptors
someday
hawkins
mattered
##lal
slavic
jesuit
cameroon
wasted
wax
lowering
victorious
freaking
outright
hancock
librarian
sensing
bald
calcium
myers
tablet
announcing
barack
shipyard
pharmaceutical
greenwich
flush
medley
patches
wolfgang
speeches
acquiring
exams
nikolai
hayden
kannada
reilly
waitress
abdomen
devastated
capped
pseudonym
pharmacy
fulfill
paraguay
clicked
##trom
archipelago
syndicated
##hman
lumber
orgasm
rejection
clifford
lorraine
advent
mafia
rodney
brock
##used
##elia
cassette
chamberlain
despair
mongolia
sensors
developmental
upstream
##alis
spanning
trombone
basque
seeded
interred
renewable
rhys
leapt
revision
molecule
##ages
chord
vicious
nord
shivered
23rd
arlington
debts
corpus
sunrise
bays
blackburn
centimetres
##uded
shuddered
strangely
gripping
cartoons
isabelle
orbital
##ppa
seals
proving
refusal
strengthened
bust
assisting
baghdad
batsman
portrayal
mara
pushes
spears
og
##cock
reside
nathaniel
brennan
confirmation
caucus
##worthy
markings
yemen
nobles
ku
lazy
viewer
catalan
encompasses
sawyer
##fall
sparked
substances
patents
braves
arranger
evacuation
sergio
persuade
dover
tolerance
penguin
cum
jockey
insufficient
townships
occupying
declining
plural
processed
projection
puppet
flanders
introduces
liability
##yon
gymnastics
antwerp
hobart
candles
jeep
wes
observers
chaplain
bundle
glorious
##hine
hazel
flung
sol
excavations
dumped
stares
bangalore
triangular
icelandic
intervals
expressing
turbine
##vers
songwriting
crafts
##igo
jasmine
ditch
rite
entertaining
comply
sorrow
wrestlers
basel
emirates
marian
rivera
helpful
##some
caution
downward
networking
##atory
##tered
darted
genocide
emergence
replies
specializing
spokesman
convenient
unlocked
fading
augustine
concentrations
resemblance
elijah
investigator
andhra
##uda
promotes
##rrell
fleeing
simone
announcer
lydia
weaver
residency
modification
##fest
stretches
alternatively
nat
lowe
lacks
##ented
pam
tile
concealed
inferior
abdullah
residences
tissues
vengeance
##ided
moisture
peculiar
groove
bologna
jennings
ninja
oversaw
zombies
pumping
batch
livingston
emerald
installations
peel
nitrogen
rama
##fying
schooling
strands
responding
werner
lime
casa
accurately
targeting
##rod
underway
##uru
hemisphere
lester
##yard
occupies
griffith
angrily
reorganized
##owing
courtney
deposited
estadio
##ifies
dunn
exiled
##ying
checks
##combe
##о
successes
unexpectedly
blu
assessed
##flower
##ه
observing
sacked
spiders
kn
nodes
prosperity
audrey
divisional
broncos
tangled
adjust
feeds
erosion
paolo
surf
directory
snatched
humid
admiralty
screwed
reddish
##nese
modules
trench
lamps
bind
leah
bucks
competes
##nz
transcription
isles
violently
clutching
pga
cyclist
inflation
flats
ragged
unnecessary
##hian
stubborn
coordinated
harriet
baba
disqualified
insect
wolfe
##fies
reinforcements
rocked
duel
winked
embraced
bricks
##raj
hiatus
defeats
pending
brightly
jealousy
##xton
##uki
lena
colorful
##dley
stein
kidney
##shu
underwear
wanderers
##haw
##icus
guardians
m³
roared
habits
##wise
permits
uranium
punished
disguise
bundesliga
elise
dundee
erotic
partisan
collectors
float
individually
rendering
behavioral
bucharest
ser
hare
valerie
corporal
nutrition
proportional
immense
##kis
pavement
##zie
##eld
sutherland
crouched
suzuki
trades
endurance
operas
crosby
prayed
priory
rory
socially
gujarat
walton
cube
pasha
privilege
lennon
floods
thorne
waterfall
nipple
scouting
approve
##lov
minorities
voter
dwight
extensions
assure
ballroom
slap
dripping
privileges
rejoined
confessed
demonstrating
patriotic
yell
investor
##uth
pagan
slumped
squares
confront
bert
embarrassment
aston
urging
sweater
starr
yuri
brains
williamson
commuter
mortar
structured
selfish
exports
##jon
cds
##him
unfinished
##rre
mortgage
destinations
##nagar
canoe
solitary
buchanan
delays
magistrate
fk
##pling
motivation
##lier
##vier
recruiting
assess
##mouth
malik
antique
pius
rahman
reich
tub
smashed
airs
galway
xii
conditioning
honduras
discharged
dexter
##pf
lionel
debates
lemon
volunteered
dioxide
procession
devi
sic
tremendous
advertisements
colts
transferring
verdict
hanover
decommissioned
utter
relate
pac
racism
beacon
limp
similarity
terra
occurrence
ant
becky
capt
updates
armament
richie
##graph
halloween
mayo
##ssen
##bone
cara
serena
dolls
obligations
##dling
violated
lafayette
jakarta
exploitation
infamous
iconic
##lah
##park
moody
reginald
dread
spill
crystals
olivier
modeled
bluff
equilibrium
separating
notices
ordnance
extinction
onset
cosmic
attachment
sammy
expose
privy
anchored
##bil
abbott
admits
bending
baritone
emmanuel
policeman
vaughan
winged
climax
dresses
denny
polytechnic
mohamed
burmese
authentic
nikki
genetics
grandparents
homestead
gaza
postponed
metacritic
una
##sby
unstable
dissertation
##cian
curls
obscure
uncovered
bronx
praying
disappearing
##hoe
prehistoric
coke
turret
mutations
nonprofit
pits
monaco
##ي
##usion
prominently
dispatched
podium
##mir
uci
##uation
fortifications
birthplace
kendall
##lby
##oll
preacher
rack
goodman
persistent
##ott
countless
jaime
recorder
lexington
persecution
jumps
renewal
wagons
crushing
##holder
decorations
##lake
abundance
wrath
laundry
£1
garde
jeanne
beetles
peasant
splitting
caste
sergei
##rer
##ema
scripts
##ively
rub
satellites
##vor
inscribed
verlag
scrapped
gale
packages
chick
potato
slogan
kathleen
arabs
##culture
counterparts
reminiscent
choral
##tead
rand
retains
bushes
dane
accomplish
courtesy
closes
##oth
slaughter
hague
krakow
lawson
tailed
elias
ginger
##ttes
canopy
betrayal
rebuilding
turf
##hof
frowning
allegiance
brigades
kicks
rebuild
polls
alias
nationalism
rowan
audition
bowie
fortunately
recognizes
harp
dillon
horrified
##oro
renault
ropes
##α
presumed
rewarded
infrared
wiping
accelerated
illustration
presses
practitioners
badminton
##iard
detained
##tera
recognizing
relates
misery
##sies
##tly
reproduction
piercing
potatoes
thornton
esther
manners
hbo
##aan
ours
bullshit
ernie
perennial
sensitivity
illuminated
rupert
##iss
rfc
nassau
##dock
staggered
socialism
##haven
appointments
nonsense
prestige
sharma
haul
solidarity
##rata
igor
pedestrian
##uit
baxter
tenants
wires
medication
unlimited
guiding
impacts
diabetes
##rama
sasha
pas
clive
extraction
continually
constraints
##bilities
sonata
hunted
sixteenth
chu
planting
quote
mayer
pretended
spat
ceramic
##cci
curtains
pigs
pitching
##dad
latvian
sore
dayton
##sted
patrols
slice
playground
##nted
shone
stool
apparatus
inadequate
mates
treason
##ija
desires
##liga
##croft
somalia
laurent
mir
grape
obliged
chevrolet
thirteenth
stunning
enthusiastic
##ede
accounted
concludes
currents
basil
##kovic
drought
##rica
mai
##aire
shove
posting
##shed
pilgrimage
humorous
packing
fry
pencil
wines
smells
marilyn
aching
newest
clung
bon
neighbours
sanctioned
##pie
mug
##stock
drowning
hydraulic
##vil
hiring
reminder
lilly
investigators
##ncies
sour
##eous
compulsory
packet
##rion
##graphic
##elle
cannes
##inate
depressed
##rit
heroic
importantly
theresa
##tled
conway
saturn
marginal
rae
##xia
corresponds
royce
pact
jasper
explosives
packaging
aluminium
##ttered
denotes
rhythmic
spans
assignments
hereditary
outlined
originating
sundays
lad
reissued
greeting
beatrice
##dic
pillar
marcos
plots
handbook
alcoholic
judiciary
avant
slides
extract
masculine
blur
##eum
homage
trembled
owens
hymn
trey
signaling
socks
accumulated
reacted
attic
theo
lining
angie
distraction
primera
talbot
creativity
billed
##hey
deacon
eduardo
identifies
proposition
dizzy
gunner
hogan
##yam
##pping
##hol
ja
##chan
jensen
reconstructed
##berger
clearance
darius
##nier
abe
harlem
plea
dei
circled
emotionally
notation
fascist
neville
exceeded
upwards
viable
ducks
workforce
racer
limiting
shri
##lson
possesses
kerr
moths
devastating
laden
disturbing
locking
gal
fearing
accreditation
flavor
aide
1870s
mountainous
##baum
melt
##ures
texture
servers
soda
herd
##nium
erect
puzzled
hum
peggy
examinations
gould
testified
geoff
devised
sacks
##law
denial
posters
grunted
cesar
tutor
gerry
offerings
byrne
falcons
combinations
incoming
pardon
rocking
26th
avengers
flared
mankind
seller
uttar
loch
nadia
stroking
exposing
fertile
ancestral
instituted
##has
noises
prophecy
taxation
eminent
vivid
pol
##bol
dart
indirect
multimedia
notebook
upside
displaying
adrenaline
referenced
geometric
##iving
progression
##ddy
blunt
announce
##far
implementing
##lav
aggression
liaison
cooler
cares
headache
plantations
gorge
dots
impulse
thickness
ashamed
averaging
kathy
obligation
precursor
fowler
symmetry
thee
hears
##rai
undergoing
butcher
bowler
##lip
cigarettes
subscription
goodness
##ically
browne
##hos
kyoto
donor
##erty
damaging
friction
drifting
expeditions
hardened
prostitution
fauna
blankets
claw
tossing
snarled
butterflies
recruits
investigative
coated
healed
communal
hai
xiii
academics
boone
psychologist
restless
lahore
stephens
brendan
foreigners
printer
ached
explode
27th
deed
scratched
dared
##pole
cardiac
okinawa
proto
commando
compelled
oddly
electrons
replica
thanksgiving
##rist
sheila
deliberate
stafford
tidal
representations
hercules
ou
##path
##iated
kidnapping
lenses
##tling
deficit
samoa
mouths
consuming
computational
maze
granting
smirk
razor
fixture
ideals
inviting
aiden
nominal
issuing
julio
pitt
ramsey
docks
##oss
exhaust
##owed
bavarian
draped
anterior
mating
ethiopian
explores
noticing
##nton
discarded
convenience
hoffman
endowment
beasts
cartridge
mormon
paternal
probe
sleeves
interfere
lump
deadline
jenks
bulldogs
scrap
alternating
justified
reproductive
nam
seize
descending
secretariat
kirby
grouped
smash
panther
sedan
tapping
lola
cheer
germanic
unfortunate
##eter
unrelated
##fan
subordinate
##sdale
suzanne
advertisement
##ility
horsepower
##lda
cautiously
discourse
luigi
##mans
##fields
noun
prevalent
mao
schneider
everett
surround
governorate
kira
##avia
westward
##take
misty
rails
sustainability
unused
##rating
packs
toast
unwilling
regulate
thy
suffrage
nile
awe
assam
definitions
travelers
affordable
##rb
conferred
sells
undefeated
beneficial
torso
basal
repeating
remixes
bahrain
cables
##itated
excavated
numbering
statutory
deluxe
##lian
forested
ramirez
derbyshire
zeus
slamming
transfers
astronomer
banana
lottery
berg
histories
bamboo
##uchi
resurrection
posterior
bowls
vaguely
##thi
thou
preserving
tensed
offence
##inas
meyrick
callum
ridden
watt
langdon
tying
lowland
snorted
daring
truman
##hale
##girl
aura
overly
filing
weighing
goa
infections
philanthropist
saunders
eponymous
##owski
latitude
perspectives
reviewing
mets
commandant
radial
##kha
flashlight
reliability
koch
vowels
amazed
ada
elaine
supper
##encies
predator
debated
soviets
cola
##boards
##nah
compartment
crooked
arbitrary
fourteenth
havana
majors
steelers
clips
profitable
ambush
exited
packers
##tile
nude
cracks
fungi
##е
limb
trousers
josie
shelby
tens
frederic
##ος
definite
smoothly
constellation
insult
baton
discs
lingering
##nco
conclusions
lent
staging
becker
grandpa
shaky
##tron
einstein
obstacles
adverse
economically
##moto
mccartney
thor
dismissal
motions
readings
nostrils
treatise
##pace
squeezing
evidently
prolonged
venezuelan
je
marguerite
beirut
takeover
shareholders
##vent
denise
digit
airplay
norse
##bbling
imaginary
pills
hubert
blaze
vacated
eliminating
vine
mansfield
retrospective
barrow
borne
clutch
bail
forensic
weaving
##nett
##witz
desktop
citadel
promotions
worrying
dorset
subdivided
##iating
manned
expeditionary
pickup
synod
chuckle
barney
##rz
##ffin
functionality
karachi
litigation
meanings
lick
anders
##ffed
execute
curl
oppose
ankles
typhoon
##د
##ache
linguistics
compassion
pressures
grazing
perfection
##iting
immunity
monopoly
muddy
backgrounds
namibia
francesca
monitors
attracting
stunt
tuition
##ии
vegetable
##mates
##quent
mgm
jen
complexes
forts
cellar
bites
seventeenth
royals
flemish
failures
mast
charities
##cular
peruvian
capitals
macmillan
ipswich
outward
frigate
postgraduate
folds
employing
##ouse
concurrently
fiery
##tai
contingent
nightmares
monumental
nicaragua
##kowski
lizard
mal
fielding
gig
reject
harding
##ipe
coastline
##cin
beethoven
humphrey
innovations
##tam
norris
doris
solicitor
obey
niagara
shelves
bourbon
nightclub
specifications
hilton
##ndo
centennial
dispersed
worm
neglected
briggs
kuala
uneasy
##nstein
##bound
##aking
##burgh
awaiting
pronunciation
##bbed
##quest
eh
optimal
raped
greens
presided
brenda
worries
venetian
marxist
turnout
##lius
refined
braced
sins
grasped
sunderland
nickel
speculated
lowell
cyrillic
communism
fundraising
resembling
colonists
mutant
freddie
usc
##mos
gratitude
##run
mural
##lous
chemist
reminds
28th
steals
tess
pietro
##ingen
promoter
ri
microphone
honoured
rai
sant
##qui
feather
##nson
burlington
kurdish
terrorists
deborah
sickness
##wed
hazard
irritated
desperation
veil
clarity
##rik
jewels
xv
##gged
##ows
##cup
berkshire
unfair
mysteries
orchid
winced
exhaustion
renovations
stranded
obe
infinity
##nies
adapt
redevelopment
thanked
registry
olga
domingo
noir
tudor
ole
commenting
behaviors
##ais
crisp
pauline
probable
stirling
wigan
paralympics
panting
surpassed
##rew
luca
barred
famed
##sters
cassandra
waiter
carolyn
exported
##orted
andres
destructive
deeds
jonah
castles
vacancy
##glass
orchard
yep
famine
belarusian
sprang
##forth
skinny
##mis
administrators
rotterdam
zambia
boiler
discoveries
##ride
##physics
lucius
disappointing
outreach
spoon
##frame
qualifications
unanimously
enjoys
regency
##iidae
stade
realism
veterinary
rodgers
dump
alain
chestnut
castile
censorship
rumble
gibbs
communion
reggae
inactivated
logs
loads
##houses
homosexual
##iano
ale
informs
##cas
phrases
plaster
linebacker
ambrose
kaiser
fascinated
limerick
recruitment
forge
mastered
##nding
leinster
rooted
threaten
##strom
borneo
##hes
suggestions
scholarships
propeller
documentaries
patronage
coats
constructing
invest
neurons
comet
entirety
shouts
identities
annoying
unchanged
wary
##antly
##ogy
neat
oversight
##kos
phillies
replay
constance
##kka
incarnation
humble
skies
minus
##acy
smithsonian
guerrilla
cadets
##plate
surplus
audit
##aru
cracking
joanna
louisa
pacing
##lights
intentionally
##iri
diner
nwa
imprint
australians
tong
unprecedented
bunker
naive
specialists
ark
nichols
railing
leaked
pedal
##uka
shrub
longing
roofs
captains
neural
tuned
##ntal
##jet
emission
medina
frantic
codex
definitive
sid
abolition
intensified
stocks
enrique
sustain
genoa
oxide
##written
clues
cha
##gers
tributaries
fragment
venom
##ente
##sca
muffled
vain
sire
laos
##ingly
##hana
hastily
snapping
surfaced
sentiment
motive
##oft
contests
approximate
mesa
luckily
dinosaur
exchanges
propelled
accord
bourne
relieve
tow
masks
offended
##ues
cynthia
##mmer
rains
bartender
zinc
reviewers
lois
##sai
legged
arrogant
rafe
comprise
handicap
blockade
inlet
lagoon
copied
drilling
shelley
petals
##inian
mandarin
obsolete
##inated
onward
arguably
productivity
praising
seldom
busch
discusses
raleigh
shortage
ranged
stanton
encouragement
firstly
conceded
overs
temporal
##uke
cbe
##bos
woo
certainty
pumps
##pton
stalked
##uli
lizzie
periodic
thieves
weaker
gases
shoving
chooses
wc
##chemical
prompting
weights
##kill
robust
flanked
sticky
tuberculosis
##eb
##eal
christchurch
resembled
wallet
reese
inappropriate
pictured
distract
fixing
fiddle
giggled
burger
heirs
hairy
mechanic
torque
obsessed
chiefly
logging
extracted
meaningful
numb
##vsky
gloucestershire
reminding
unite
##lit
breeds
diminished
clown
glove
1860s
##ن
archibald
focal
freelance
sliced
depiction
##yk
organism
switches
sights
stray
crawling
##ril
lever
leningrad
interpretations
loops
anytime
reel
alicia
delighted
##ech
inhaled
xiv
suitcase
bernie
vega
licenses
northampton
exclusion
induction
monasteries
racecourse
homosexuality
##sfield
##rky
dimitri
michele
alternatives
ions
commentators
genuinely
objected
pork
hospitality
fencing
stephan
warships
peripheral
wit
drunken
wrinkled
quentin
spends
departing
chung
numerical
spokesperson
johannesburg
caliber
killers
##udge
assumes
neatly
demographic
abigail
bloc
mounting
##lain
bentley
slightest
recipients
##jk
merlin
##writer
seniors
prisons
blinking
hindwings
flickered
kappa
##hel
80s
strengthening
appealing
brewing
gypsy
mali
lashes
hulk
unpleasant
harassment
bio
treaties
predict
instrumentation
pulp
troupe
boiling
mantle
##ffe
##vn
dividing
handles
verbs
##onal
coconut
senegal
thorough
gum
momentarily
##sto
cocaine
panicked
destined
##turing
teatro
denying
weary
captained
mans
##hawks
wakefield
bollywood
thankfully
cyril
amendments
##bahn
consultation
stud
reflections
kindness
internally
##ovo
tex
mosaic
distribute
paddy
seeming
##hic
piers
##mura
popularly
winger
kang
sentinel
mccoy
##anza
covenant
##bag
verge
fireworks
suppress
thrilled
dominate
##jar
swansea
reconciliation
stiffened
cue
dorian
##uf
damascus
amor
ida
foremost
##aga
porsche
unseen
dir
##had
##azi
stony
lexi
melodies
##nko
angular
integer
podcast
ants
inherent
jaws
justify
persona
##olved
josephine
##nr
##ressed
customary
flashes
gala
cyrus
glaring
backyard
ariel
physiology
greenland
stir
avon
atletico
finch
methodology
ked
mas
catholicism
townsend
branding
quincy
fits
containers
ashore
aragon
forearm
poisoning
adopting
conquer
grinding
amnesty
keller
finances
evaluate
forged
lankan
instincts
##uto
guam
bosnian
photographed
workplace
desirable
protector
allocation
intently
encourages
willy
##sten
bodyguard
electro
brighter
##ν
bihar
##chev
lasts
opener
amphibious
sal
verde
arte
##cope
captivity
vocabulary
yields
##tted
agreeing
desmond
pioneered
##chus
strap
campaigned
railroads
##ович
emblem
##dre
stormed
##ulous
marijuana
northumberland
##nath
bowen
landmarks
beaumont
##qua
danube
##bler
attorneys
th
flyers
critique
villains
cass
mutation
acc
##0s
colombo
mckay
motif
sampling
concluding
syndicate
##rell
neon
stables
warnings
clint
mourning
wilkinson
##tated
merrill
leopard
evenings
exhaled
emil
sonia
ezra
discrete
stove
farrell
fifteenth
prescribed
superhero
##rier
worms
helm
wren
##duction
expo
##rator
hq
unfamiliar
antony
prevents
acceleration
fiercely
mari
painfully
calculations
cheaper
ign
clifton
irvine
davenport
mozambique
pierced
##evich
wonders
##wig
##cate
##iling
crusade
ware
enzymes
reasonably
mls
##coe
ambition
bunny
eliot
kernel
##fin
asphalt
headmaster
torah
aden
lush
pins
waived
##yas
joao
substrate
enforce
##grad
##ules
alvarez
selections
epidemic
tempted
bremen
translates
ensured
waterfront
29th
forrest
manny
malone
kramer
reigning
simpler
absorption
engraved
##ffy
evaluated
haze
comforting
crossover
##abe
thorn
##rift
##imo
suppression
fatigue
cutter
wurttemberg
##orf
enforced
hovering
proprietary
samurai
syllable
ascent
lacey
tick
lars
tractor
merchandise
rep
bouncing
defendants
##yre
huntington
##oko
standardized
##hor
##hima
assassinated
predecessors
rainy
liar
assurance
lyrical
##uga
secondly
flattened
parameter
undercover
##mity
bordeaux
punish
ridges
markers
exodus
inactive
hesitate
debbie
nyc
pledge
savoy
nagar
offset
organist
##tium
hesse
marin
converting
##iver
diagram
propulsion
validity
reverted
supportive
ministries
clans
responds
proclamation
##inae
##ø
ein
pleading
patriot
birch
islanders
strauss
hates
##dh
brandenburg
concession
1900s
killings
textbook
antiquity
cinematography
wharf
embarrassing
setup
creed
farmland
inequality
centred
signatures
fallon
##ingham
##uts
ceylon
gazing
directive
laurie
##tern
globally
##uated
##dent
allah
excavation
threads
##cross
frantically
icc
utilize
determines
respiratory
thoughtful
receptions
##dicate
merging
chandra
seine
builders
builds
diagnostic
dev
visibility
goddamn
analyses
dhaka
proves
chancel
concurrent
curiously
canadians
pumped
restoring
1850s
turtles
jaguar
sinister
spinal
declan
vows
glowed
capitalism
swirling
universidad
##lder
##oat
soloist
##genic
##oor
coincidence
beginnings
nissan
dip
resorts
caucasus
combustion
infectious
##eno
pigeon
serpent
##itating
conclude
masked
salad
jew
##gr
surreal
toni
##wc
harmonica
##gins
##etic
##coat
fishermen
intending
bravery
##wave
klaus
titan
wembley
taiwanese
ransom
40th
incorrect
hussein
eyelids
cooke
dramas
utilities
##etta
##print
eisenhower
principally
granada
lana
##rak
openings
concord
##bl
bethany
connie
morality
sega
##mons
##nard
earnings
##kara
##cine
communes
##rel
coma
composing
softened
severed
grapes
nguyen
analyzed
warlord
hubbard
heavenly
behave
slovenian
##hit
##ony
hailed
filmmakers
trance
caldwell
skye
unrest
coward
likelihood
##aging
bern
taliban
honolulu
propose
browser
imagining
cobra
contributes
dukes
instinctively
conan
violinist
##ores
accessories
gradual
##amp
quotes
sioux
##dating
undertake
intercepted
sparkling
compressed
fungus
tombs
haley
imposing
rests
degradation
lincolnshire
retailers
wetlands
tulsa
distributor
dungeon
nun
greenhouse
convey
atlantis
aft
exits
oman
dresser
lyons
##sti
joking
eddy
judgement
omitted
digits
##game
juniors
##rae
cents
stricken
une
##ngo
wizards
weir
breton
nan
technician
fibers
liking
royalty
persia
terribly
magician
##rable
##unt
vance
cafeteria
booker
camille
warmer
##static
consume
cavern
gaps
compass
contemporaries
foyer
soothing
graveyard
maj
plunged
blush
##wear
cascade
demonstrates
ordinance
##nov
boyle
##lana
rockefeller
shaken
banjo
izzy
##ense
breathless
vines
##eman
alterations
chromosome
dwellings
feudal
mole
catalonia
relics
tenant
mandated
##fm
fridge
hats
honesty
patented
raul
heap
cruisers
accusing
enlightenment
infants
wherein
chatham
contractors
affinity
osborne
piston
traps
maturity
##rana
lagos
##zal
peering
##nay
attendant
dealers
protocols
subset
prospects
biographical
##cre
artery
##zers
insignia
nuns
endured
##eration
recommend
schwartz
serbs
berger
cromwell
crossroads
enduring
clasped
grounded
##bine
marseille
twitched
abel
choke
catalyst
moldova
italians
##tist
disastrous
wee
##oured
##nti
wwf
nope
##piration
##asa
expresses
thumbs
##nza
coca
cheating
##ption
skipped
sensory
heidelberg
spies
satan
dangers
semifinal
bohemia
whitish
confusing
shipbuilding
relies
surgeons
landings
ravi
baku
moor
suffix
alejandro
##yana
litre
upheld
##unk
rajasthan
##rek
coaster
insists
posture
scenarios
etienne
favoured
appoint
transgender
elephants
poked
greenwood
defences
fulfilled
militant
somali
1758
chalk
potent
##ucci
migrants
wink
assistants
nos
restriction
activism
niger
##ario
colon
shaun
##sat
daphne
##erated
swam
congregations
reprise
considerations
magnet
playable
xvi
##р
overthrow
tobias
knob
chavez
coding
##mers
propped
katrina
orient
newcomer
##suke
temperate
##pool
farmhouse
interrogation
committing
##vert
forthcoming
strawberry
joaquin
macau
ponds
shocking
siberia
##cellular
chant
contributors
##nant
##ologists
sped
absorb
hail
spared
##hore
barbados
karate
opus
originates
saul
##xie
evergreen
leaped
##rock
correlation
exaggerated
weekday
unification
bump
tracing
brig
afb
pathways
utilizing
disturbance
kneeling
##stad
##guchi
100th
pune
##thy
decreasing
manipulation
miriam
academia
ecosystem
occupational
rbi
##lem
rift
rotary
stacked
incorporation
awakening
generators
guerrero
racist
##omy
cyber
derivatives
culminated
allie
annals
panzer
sainte
pops
zu
austro
##vate
algerian
politely
nicholson
mornings
educate
tastes
thrill
dartmouth
##gating
##jee
regan
differing
concentrating
choreography
divinity
pledged
alexandre
routing
gregor
madeline
##idal
apocalypse
##hora
gunfire
culminating
elves
fined
lam
programmed
tar
guessing
transparency
gabrielle
##gna
cancellation
flexibility
##lining
accession
shea
stronghold
nets
specializes
##rgan
abused
hasan
sgt
exceeding
##₄
admiration
supermarket
photographers
specialised
tilt
resonance
hmm
perfume
sami
threatens
garland
botany
guarding
boiled
greet
puppy
russo
supplier
wilmington
vibrant
vijay
##bius
paralympic
grumbled
paige
faa
licking
margins
hurricanes
##gong
fest
grenade
ripping
##uz
counseling
weigh
##sian
needles
wiltshire
edison
costly
##not
fulton
tramway
redesigned
staffordshire
gasping
watkins
sleepy
candidacy
monkeys
timeline
throbbing
##bid
##sos
berth
uzbekistan
vanderbilt
bothering
overturned
ballots
gem
##iger
sunglasses
subscribers
hooker
compelling
ang
exceptionally
saloon
stab
##rdi
carla
terrifying
##vision
coil
##oids
satisfying
vendors
31st
mackay
deities
overlooked
ambient
bahamas
felipe
olympia
whirled
botanist
advertised
tugging
disciples
morales
unionist
rites
foley
morse
motives
creepy
##₀
soo
##sz
bargain
highness
frightening
turnpike
tory
reorganization
depict
biographer
unopposed
manifesto
##gles
institut
emile
accidental
kapoor
##dam
kilkenny
cortex
lively
romanesque
jain
shan
cannons
##ske
petrol
echoing
amalgamated
disappears
cautious
proposes
sanctions
trenton
##ر
flotilla
aus
contempt
tor
canary
cote
theirs
##hun
conceptual
deleted
fascinating
paso
blazing
elf
honourable
hutchinson
##eiro
##outh
##zin
surveyor
amidst
wooded
reissue
intro
##ono
cobb
shelters
newsletter
hanson
brace
encoding
confiscated
dem
caravan
marino
scroll
melodic
cows
imam
##adi
##aneous
northward
searches
biodiversity
cora
roaring
##bers
connell
theologian
halo
compose
pathetic
unmarried
dynamo
az
calculation
toulouse
deserves
humour
nr
forgiveness
tam
undergone
martyr
pamela
myths
whore
counselor
hicks
heavens
battleship
electromagnetic
stellar
establishments
presley
hopped
##chin
temptation
90s
wills
##yuan
nhs
##nya
seminars
##yev
adaptations
gong
asher
lex
indicator
sikh
tobago
cites
goin
##yte
satirical
##gies
characterised
correspond
bubbles
lure
participates
##vid
eruption
skate
therapeutic
canals
wholesale
defaulted
sac
petit
##zzled
virgil
leak
ravens
portraying
##yx
ghetto
creators
dams
portray
vicente
##rington
fae
namesake
bounty
##arium
joachim
##ota
##iser
aforementioned
axle
snout
depended
dismantled
reuben
##ibly
gallagher
##lau
earnest
##ieu
##iary
inflicted
objections
##llar
asa
gritted
##athy
jericho
##sea
##was
flick
underside
ceramics
undead
substituted
eastward
undoubtedly
wheeled
chimney
##iche
guinness
siding
traitor
baptiste
disguised
inauguration
tipperary
choreographer
perched
warmed
stationary
##ntes
bacterial
##aurus
flores
phosphate
attacker
invaders
alvin
intersects
indirectly
immigrated
businessmen
cornelius
valves
narrated
pill
sober
nationale
monastic
applicants
scenery
##jack
motifs
constitutes
##osh
jurisdictions
tuning
irritation
woven
##uddin
fertility
##erie
antagonist
impatient
glacial
hides
boarded
denominations
interception
##jas
nicola
algebraic
marquess
bahn
parole
buyers
bait
turbines
paperwork
bestowed
natasha
renee
oceans
purchases
vaccine
##tock
fixtures
playhouse
integrate
jai
oswald
intellectuals
booked
nests
mortimer
##isi
obsession
sept
##gler
##sum
scrutiny
simultaneous
squinted
##shin
collects
oven
shankar
penned
remarkably
##я
slips
luggage
spectral
collaborations
louie
consolidation
##ailed
##ivating
hoover
blackpool
harness
ignition
vest
tails
belmont
mongol
skinner
##nae
visually
mage
derry
##tism
##unce
stevie
transitional
##rdy
redskins
drying
prep
prospective
annoyance
oversee
##loaded
fills
##books
announces
scowled
respects
prasad
mystic
tucson
##vale
revue
springer
bankrupt
aristotle
habsburg
##geny
dal
natal
nut
pod
chewing
darts
moroccan
walkover
rosario
lenin
punjabi
##ße
grossed
scattering
wired
invasive
hui
polynomial
corridors
wakes
gina
portrays
##cratic
arid
retreating
erich
irwin
sniper
##dha
linen
lindsey
maneuver
butch
shutting
socio
bounce
commemorative
postseason
jeremiah
pines
mystical
beads
abbas
furnace
bidding
consulted
assaulted
empirical
rubble
enclosure
sob
weakly
cancel
polly
yielded
##emann
curly
prediction
battered
70s
vhs
jacqueline
render
sails
barked
detailing
grayson
riga
sloane
raging
##yah
herbs
bravo
##athlon
alloy
giggle
imminent
suffers
assumptions
waltz
##itate
accomplishments
##ited
bathing
remixed
deception
##emia
deepest
##eis
balkan
frogs
##rong
slab
##pate
philosophers
peterborough
grains
imports
dickinson
rwanda
##atics
dirk
tablets
##rove
clone
##rice
caretaker
hostilities
mclean
##gre
regimental
treasures
norms
impose
tsar
tango
diplomacy
variously
complain
recognise
arrests
1779
celestial
pulitzer
##dus
libretto
##moor
adele
splash
expectation
lds
confronts
##izer
spontaneous
harmful
wedge
entrepreneurs
buyer
bilingual
translate
rugged
conner
circulated
uae
eaton
##gra
##zzle
lingered
lockheed
vishnu
reelection
alonso
##oom
joints
yankee
headline
cooperate
heinz
laureate
invading
##sford
echoes
scandinavian
##dham
hugging
vitamin
salute
micah
hind
trader
##sper
radioactive
##ndra
militants
poisoned
ratified
remark
campeonato
deprived
wander
prop
##dong
##tani
##eye
chiang
darcy
##oping
mandolin
spice
statesman
babylon
walled
forgetting
afro
##cap
giorgio
buffer
##polis
planetary
##gis
overlap
terminals
kinda
centenary
##bir
arising
manipulate
elm
ke
##tad
chrysler
mapped
moose
pomeranian
quad
macarthur
assemblies
shoreline
recalls
stratford
##rted
noticeable
##evic
imp
##rita
##sque
accustomed
supplying
tents
disgusted
sipped
filters
khz
reno
selecting
luftwaffe
mcmahon
tyne
masterpiece
carriages
collided
dunes
exercised
flare
remembers
muzzle
heck
##rson
burgess
lunged
middleton
boycott
bilateral
##sity
hazardous
lumpur
multiplayer
spotlight
jackets
goldman
liege
porcelain
rag
waterford
attracts
hopeful
battling
ottomans
kensington
baked
hymns
cheyenne
lattice
levine
borrow
polymer
clashes
michaels
monitored
commitments
denounced
##von
cavity
##oney
hobby
akin
##holders
futures
intricate
cornish
patty
##oned
illegally
dolphin
##lag
barlow
yellowish
maddie
apologized
luton
plagued
##puram
##rds
sway
fanny
łodz
##rino
psi
suspicions
hanged
##eding
initiate
charlton
##por
nak
competent
analytical
annex
wardrobe
reservations
sect
fairfax
hedge
piled
buckingham
uneven
bauer
simplicity
snyder
interpret
accountability
donors
moderately
byrd
continents
##cite
disciple
jamaican
nominees
##uss
mongolian
diver
attackers
eagerly
ideological
pillows
miracles
apartheid
revolver
sulfur
clinics
moran
##enko
ile
katy
rhetoric
##icated
chronology
recycling
##hrer
elongated
mughal
pascal
profiles
vibration
databases
domination
##fare
matthias
digest
rehearsal
polling
weiss
initiation
reeves
clinging
flourished
impress
##hoff
buckley
symposium
rhythms
weed
emphasize
transforming
##taking
##yman
accountant
analyze
flicker
foil
priesthood
voluntarily
decreases
##hya
slater
sv
charting
mcgill
##lde
moreno
besieged
zur
robes
##phic
admitting
deported
turmoil
peyton
earthquakes
##ares
nationalists
beau
clair
brethren
interrupt
welch
curated
galerie
requesting
##ested
impending
steward
viper
##vina
complaining
beautifully
brandy
foam
nl
alessandro
punches
laced
explanations
##lim
attribute
clit
reggie
discomfort
##cards
smoothed
whales
##cene
adler
countered
duffy
disciplinary
widening
recipe
reliance
conducts
goats
gradient
preaching
##shaw
matilda
quasi
striped
meridian
cannabis
cordoba
certificates
##agh
##tering
graffiti
hangs
pilgrims
repeats
##ych
revive
urine
etat
##hawk
fueled
belts
fuzzy
susceptible
mauritius
salle
sincere
beers
hooks
##cki
arbitration
entrusted
advise
sniffed
seminar
junk
donnell
processors
principality
strapped
celia
mendoza
everton
fortunes
prejudice
starving
reassigned
steamer
##lund
tuck
evenly
foreman
##ffen
dans
envisioned
slit
baseman
liberia
rosemary
##weed
electrified
periodically
potassium
stride
contexts
sperm
slade
mariners
influx
bianca
subcommittee
##rane
spilling
icao
estuary
##nock
delivers
##ulata
isa
mira
bohemian
dessert
##sbury
welcoming
proudly
slowing
##chs
musee
ascension
russ
##vian
waits
##psy
africans
exploit
##morphic
eccentric
crab
peck
entrances
formidable
marketplace
groom
bolted
metabolism
patton
robbins
courier
payload
endure
##ifier
andes
refrigerator
ornate
##uca
ruthless
illegitimate
masonry
strasbourg
bikes
##³
apples
quintet
willingly
niche
bakery
corpses
energetic
##cliffe
##sser
##ards
centimeters
centro
fuscous
cretaceous
rancho
##yde
andrei
telecom
tottenham
oasis
ordination
vulnerability
presiding
corey
penguins
sims
##pis
malawi
piss
correction
##cked
##ffle
##ryn
countdown
detectives
psychiatrist
psychedelic
dinosaurs
blouse
choi
vowed
randomly
##pol
49ers
scrub
blanche
bruins
dusseldorf
##using
unwanted
##ums
dominique
elevations
headlights
om
laguna
##oga
famously
ignorance
shrewsbury
breuning
che
confederacy
greco
overhaul
##screen
paz
skirts
disagreement
cruelty
jagged
phoebe
shifter
hovered
viruses
##wes
##lined
landlord
squirrel
dashed
##ι
ornamental
gag
wally
grange
literal
spurs
undisclosed
proceeding
billie
orphan
spanned
humidity
indy
weighted
presentations
explosions
lucian
##tary
vaughn
hindus
##anga
##hell
psycho
daytona
protects
efficiently
rematch
sly
tandem
##oya
rebranded
impaired
hee
metropolis
peach
godfrey
diaspora
ethnicity
prosperous
gleaming
dar
grossing
playback
##rden
stripe
pistols
##tain
births
labelled
##cating
rudy
alba
##onne
aquarium
hostility
##tase
shudder
sumatra
hardest
lakers
consonant
creeping
demos
homicide
capsule
zeke
liberties
expulsion
pueblo
##comb
trait
transporting
##ddin
##neck
##yna
depart
gregg
mold
ledge
hangar
oldham
playboy
termination
analysts
gmbh
romero
##itic
insist
cradle
filthy
brightness
slash
shootout
deposed
bordering
##truct
microwave
tumbled
sheltered
cathy
werewolves
messy
andersen
convex
clapped
clinched
satire
wasting
edo
rufus
##jak
mont
##etti
poznan
##keeping
restructuring
transverse
##rland
azerbaijani
slovene
gestures
roommate
choking
shear
##quist
vanguard
oblivious
##hiro
disagreed
baptism
##lich
coliseum
##aceae
salvage
societe
cory
locke
relocation
relying
versailles
ahl
swelling
##elo
cheerful
##edes
gin
sarajevo
obstacle
diverted
##nac
messed
thoroughbred
fluttered
utrecht
chewed
acquaintance
assassins
dispatch
mirza
##wart
salzburg
swell
##gee
idle
ligue
samson
##nds
##igh
playful
spawned
##cise
tease
##case
burgundy
stirring
skeptical
interceptions
marathi
##dies
bedrooms
aroused
pinch
##lik
preferences
tattoos
buster
digitally
projecting
rust
##ital
kitten
priorities
addison
pseudo
##guard
dusk
icons
sermon
##psis
##iba
##lift
ju
truce
rink
##dah
##wy
defects
psychiatry
offences
calculate
glucose
##iful
##rized
##unda
francaise
##hari
richest
warwickshire
carly
purity
redemption
lending
##cious
muse
bruises
cerebral
aero
carving
preface
terminology
invade
monty
anarchist
blurred
##iled
rossi
treats
guts
shu
foothills
ballads
undertaking
premise
cecilia
affiliates
blasted
conditional
wilder
minors
drone
rudolph
buffy
swallowing
horton
attested
rutherford
howell
primetime
livery
penal
##bis
minimize
hydro
wrecked
wrought
palazzo
##gling
cans
vernacular
friedman
nobleman
shale
walnut
danielle
##ection
##tley
sears
##kumar
chords
lend
flipping
streamed
por
dracula
gallons
sacrifices
gamble
orphanage
##iman
mckenzie
##gible
boxers
daly
##balls
##ان
##ific
##rative
##iq
exploited
slated
##uity
circling
hillary
pinched
goldberg
provost
campaigning
piles
ironically
jong
mohan
successors
usaf
##tem
##ught
autobiographical
haute
preserves
##ending
acquitted
comparisons
hydroelectric
gangs
cypriot
torpedoes
rushes
derive
bumps
instability
fiat
pets
##mbe
silas
dye
reckless
settler
##itation
heats
##writing
canonical
maltese
fins
mushroom
stacy
aspen
avid
##kur
##loading
vickers
gaston
hillside
statutes
wilde
gail
kung
sabine
comfortably
motorcycles
##rgo
pneumonia
fetch
##sonic
axel
faintly
parallels
##oop
mclaren
spouse
compton
interdisciplinary
miner
##eni
clamped
##chal
##llah
separates
versa
##mler
scarborough
labrador
##lity
##osing
rutgers
hurdles
como
burt
divers
wichita
cade
coincided
bruised
mla
vineyard
##ili
##brush
notch
mentioning
jase
hearted
kits
doe
##acle
pomerania
##ady
ronan
seizure
pavel
problematic
##zaki
domenico
##ulin
catering
penelope
dependence
parental
emilio
ministerial
atkinson
##bolic
clarkson
chargers
colby
grill
peeked
arises
summon
##aged
fools
##grapher
faculties
qaeda
##vial
garner
refurbished
##hwa
geelong
disasters
nudged
shareholder
lori
algae
reinstated
rot
##ades
##nous
invites
stainless
inclusive
##itude
diocesan
til
##icz
denomination
##xa
benton
floral
registers
##erman
##kell
absurd
brunei
guangzhou
hitter
retaliation
##uled
##eve
blanc
consistency
contamination
##eres
dire
palermo
broadcasters
diaries
inspire
vols
brewer
tightening
mixtape
hormone
##tok
stokes
##color
##dly
##ssi
##ometer
##lington
sanitation
##tility
intercontinental
##adt
¹⁄₂
cylinders
economies
favourable
unison
croix
gertrude
odyssey
vanity
dangling
##logists
upgrades
dice
middleweight
practitioner
henrik
parlor
orion
angered
lac
blurted
##rri
sensual
intends
swings
angled
##phs
husky
attain
peerage
precinct
textiles
cheltenham
shuffled
dai
confess
tasting
bhutan
##riation
tyrone
segregation
abrupt
ruiz
##rish
smirked
blackwell
confidential
browning
amounted
vase
scarce
fabulous
raided
staple
guyana
unemployed
glider
shay
##tow
carmine
troll
intervene
squash
superstar
cylindrical
len
roadway
researched
handy
##rium
##jana
lao
declares
##rring
##tadt
##elin
##kova
willem
shrubs
napoleonic
realms
skater
volkswagen
##ł
tad
hara
archaeologist
awkwardly
eerie
##kind
wiley
##heimer
titus
organizers
cfl
crusaders
lama
vent
enraged
thankful
occupants
maximilian
##gaard
possessing
textbooks
##oran
collaborator
quaker
##ulo
avalanche
mono
silky
straits
isaiah
mustang
surged
resolutions
potomac
descend
kilograms
plato
strains
saturdays
##olin
bernstein
##ype
holstein
ponytail
belize
conversely
heroine
perpetual
##ylus
charcoal
piedmont
glee
negotiating
backdrop
prologue
##jah
pasadena
climbs
ramos
sunni
##holm
##tner
##tri
anand
deficiency
hertfordshire
stout
##avi
aperture
orioles
##irs
doncaster
intrigued
bombed
coating
otis
##mat
cocktail
##jit
##eto
amir
arousal
##proof
dixie
pots
whereabouts
##fted
drains
bullying
cottages
scripture
coherent
fore
poe
appetite
##uration
sampled
##ators
derrick
rotor
jays
peacock
installment
##rro
advisors
##coming
rodeo
scotch
##mot
##fen
##vant
ensued
rodrigo
dictatorship
martyrs
twenties
##н
towed
incidence
marta
rainforest
sai
scaled
##cles
oceanic
qualifiers
symphonic
mcbride
dislike
generalized
aubrey
colonization
##iation
##lion
##ssing
disliked
lublin
salesman
##ulates
spherical
whatsoever
sweating
avalon
contention
punt
severity
alderman
atari
##dina
##grant
##rop
scarf
seville
vertices
annexation
fairfield
fascination
inspiring
launches
palatinate
regretted
##rca
feral
##iom
elk
nap
olsen
reddy
yong
##leader
##iae
garment
transports
gracie
outrage
viceroy
insides
##esis
breakup
grady
organizer
softer
grimaced
murals
galicia
arranging
vectors
##rsten
##sb
##cens
sloan
##eka
bitten
ara
fender
nausea
bumped
kris
banquet
comrades
detector
persisted
##llan
adjustment
endowed
cinemas
sellers
##uman
peek
kindly
neglect
simpsons
talon
mausoleum
runaway
hangul
lookout
##cic
coughed
acquainted
quicker
accordion
neolithic
##qa
artemis
coefficient
lenny
pandora
tx
##xed
ecstasy
litter
segunda
chairperson
gemma
hiss
rumor
vow
nasal
antioch
compensate
patiently
transformers
##eded
judo
morrow
penis
posthumous
bandits
husbands
denote
flaming
##any
##phones
langley
yorker
walters
##kle
gubernatorial
fatty
leroy
outlaw
##nine
unpublished
poole
jakob
##ᵢ
##ₙ
crete
distorted
superiority
##dhi
intercept
crust
mig
claus
crashes
stallion
frontal
armistice
##estinal
elton
aj
encompassing
camel
commemorated
malaria
woodward
calf
cigar
penetrate
##oso
willard
##rno
##uche
illustrate
amusing
convergence
noteworthy
##lma
##rva
journeys
realise
manfred
##sable
##vocation
hearings
fiance
##posed
educators
provoked
adjusting
##cturing
modular
stockton
paterson
vlad
rejects
electors
selena
maureen
##tres
##rce
swirled
##num
proportions
nanny
pawn
naturalist
parma
apostles
awoke
ethel
wen
##bey
monsoon
overview
##inating
mccain
rendition
risky
adorned
##ih
equestrian
germain
nj
conspicuous
confirming
##yoshi
shivering
##imeter
milestone
rumours
flinched
bounds
smacked
token
##bei
lectured
automobiles
##shore
impacted
##iable
nouns
nero
##leaf
ismail
prostitute
trams
bridget
sud
stimulus
impressions
reins
revolves
##gned
giro
honeymoon
##swell
criterion
##sms
##uil
libyan
prefers
##osition
preview
sucks
accusation
bursts
metaphor
diffusion
tolerate
faye
betting
cinematographer
liturgical
specials
bitterly
humboldt
##ckle
flux
rattled
##itzer
archaeologists
odor
authorised
marshes
discretion
##ов
alarmed
archaic
inverse
##leton
explorers
##pine
drummond
tsunami
woodlands
##minate
##tland
booklet
insanity
owning
insert
crafted
calculus
receivers
stung
##eca
##nched
prevailing
travellers
eyeing
lila
graphs
##borne
julien
##won
morale
adaptive
therapist
erica
cw
libertarian
bowman
pitches
vita
##ional
crook
##entation
caledonia
mutiny
##sible
1840s
automation
##ß
flock
##pia
ironic
pathology
##imus
remarried
joker
withstand
energies
##att
shropshire
hostages
madeleine
tentatively
conflicting
mateo
recipes
euros
mercenaries
nico
##ndon
albuquerque
augmented
mythical
bel
freud
##child
cough
##lica
freddy
lillian
genetically
nuremberg
calder
bonn
outdoors
paste
suns
urgency
vin
restraint
tyson
##cera
##selle
barrage
bethlehem
kahn
##par
mounts
nippon
barony
happier
ryu
makeshift
sheldon
blushed
castillo
barking
listener
taped
bethel
fluent
headlines
pornography
rum
disclosure
sighing
mace
doubling
gunther
manly
##plex
interventions
physiological
forwards
emerges
##tooth
##gny
compliment
rib
recession
visibly
barge
faults
connector
exquisite
prefect
##rlin
patio
##cured
elevators
italics
pena
wasp
satin
botswana
graceful
respectable
##jima
##rter
##oic
franciscan
generates
##dl
alfredo
disgusting
##olate
##iously
sherwood
warns
promo
cheryl
sino
##ة
##escu
twitch
##zhi
brownish
thom
ortiz
##dron
densely
##beat
carmel
reinforce
##bana
anastasia
downhill
vertex
contaminated
remembrance
harmonic
homework
fiancee
gears
olds
angelica
ramsay
quiz
colliery
sevens
##cape
autism
##hil
walkway
##boats
ruben
abnormal
ounce
khmer
##bbe
zachary
bedside
morphology
punching
##olar
sparrow
convinces
hewitt
queer
remastered
rods
mabel
solemn
notified
lyricist
symmetric
##xide
encore
passports
wildcats
##uni
baja
##pac
mildly
##ease
bleed
commodity
mounds
glossy
orchestras
##omo
damian
prelude
ambitions
##vet
awhile
remotely
##aud
asserts
imply
##iques
distinctly
modelling
remedy
##dded
windshield
dani
##endra
audible
powerplant
invalid
elemental
acquisitions
##hala
immaculate
libby
plata
smuggling
ventilation
denoted
minh
##morphism
differed
dion
kelley
lore
mocking
sabbath
spikes
hygiene
drown
runoff
stylized
tally
liberated
aux
interpreter
righteous
aba
siren
reaper
pearce
millie
##cier
##yra
gaius
##iso
captures
##ttering
dorm
claudio
##sic
benches
knighted
blackness
##ored
discount
fumble
oxidation
routed
##ς
novak
perpendicular
spoiled
fracture
splits
pads
topology
##cats
axes
fortunate
offenders
protestants
esteem
broadband
convened
frankly
hound
prototypes
isil
facilitated
keel
##sher
sahara
awaited
bubba
orb
prosecutors
hem
##xing
relaxing
remnant
romney
sorted
slalom
stefano
ulrich
##active
exemption
folder
pauses
foliage
hitchcock
epithet
criticisms
##aca
ballistic
brody
hinduism
chaotic
youths
equals
##pala
pts
thicker
analogous
capitalist
improvised
overseeing
sinatra
ascended
beverage
straightforward
##kon
curran
bois
induce
surveying
emperors
sax
unpopular
cartoonist
fused
##mble
unto
##yuki
localities
##cko
##ln
darlington
slain
academie
lobbying
sediment
puzzles
##grass
defiance
dickens
manifest
tongues
alumnus
arbor
coincide
appalachian
mustafa
examiner
cabaret
traumatic
yves
bracelet
draining
heroin
magnum
baths
odessa
consonants
mitsubishi
##gua
kellan
vaudeville
joked
straps
probation
##ław
ceded
interfaces
##pas
##zawa
blinding
viet
rothschild
museo
huddersfield
tactic
##storm
brackets
dazed
incorrectly
##vu
glazed
fearful
manifold
benefited
irony
stumbling
##rte
willingness
balkans
mei
wraps
##aba
injected
##lea
gu
syed
harmless
##hammer
bray
takeoff
poppy
timor
cardboard
astronaut
purdue
weeping
southbound
cursing
stalls
diagonal
##neer
lamar
bryce
comte
weekdays
harrington
##uba
negatively
##see
lays
grouping
##cken
##henko
affirmed
halle
modernist
##lai
hodges
smelling
aristocratic
baptized
dismiss
justification
oilers
coupling
qin
snack
healer
##qing
gardener
layla
battled
formulated
stephenson
gravitational
##gill
granny
coordinating
suites
##ioned
monarchs
##cote
##hips
blended
barrister
deposition
fia
mina
policemen
paranoid
##pressed
churchyard
covert
crumpled
creep
abandoning
tr
transmit
conceal
barr
understands
readiness
spire
##cology
##enia
startling
unlock
vida
bowled
slots
##nat
##islav
spaced
trusting
admire
rig
slack
casualty
classmates
##odes
##rar
##rked
amherst
furnished
evolve
foundry
menace
mead
##lein
flu
wesleyan
##kled
monterey
webber
##vos
wil
##mith
##на
bartholomew
justices
restrained
##cke
amenities
mediated
sewage
trenches
mainz
##thus
1800s
##cula
##inski
caine
bonding
converts
spheres
superseded
marianne
crypt
sweaty
ensign
historia
##br
spruce
##ask
forks
thoughtfully
yukon
pamphlet
ames
##uter
karma
##yya
bryn
negotiation
sighs
incapable
##mbre
##ntial
actresses
taft
##mill
luce
prevailed
##amine
motionless
envoy
testify
investing
sculpted
instructors
provence
kali
cullen
horseback
##while
goodwin
##jos
gaa
norte
##ldon
modify
wavelength
abd
skinned
sprinter
forecast
scheduling
marries
squared
tentative
##chman
boer
##isch
bolts
swap
fisherman
assyrian
impatiently
guthrie
martins
murdoch
tanya
nicely
dolly
lacy
med
syn
decks
fashionable
millionaire
surfing
heaved
tammy
consulate
attendees
routinely
fuse
saxophonist
backseat
malaya
##lord
scowl
tau
##ishly
sighted
steaming
##rks
##holes
##hong
ching
##wife
bless
conserved
jurassic
stacey
zion
chunk
rigorous
blaine
peabody
slayer
dismay
brewers
nz
##jer
det
##glia
glover
postwar
penetration
sylvester
imitation
vertically
airlift
heiress
knoxville
viva
##uin
macon
##rim
##fighter
##gonal
janice
##orescence
##wari
marius
belongings
leicestershire
blanco
inverted
preseason
sanity
sobbing
##due
##elt
##dled
collingwood
regeneration
flickering
shortest
##mount
##osi
feminism
##lat
sherlock
cabinets
fumbled
northbound
precedent
snaps
##mme
researching
##akes
guillaume
insights
manipulated
vapor
neighbour
gangster
frey
stalking
scarcely
callie
barnett
tendencies
doomed
assessing
slung
panchayat
ambiguous
bartlett
##etto
distributing
violating
wolverhampton
##hetic
swami
histoire
##urus
liable
pounder
groin
hussain
larsen
popping
surprises
##atter
vie
curt
##station
mute
relocate
musicals
authorization
richter
##sef
immortality
tna
bombings
deteriorated
yiddish
##acious
robbed
colchester
ao
verified
balancing
apostle
swayed
recognizable
oxfordshire
retention
nottinghamshire
contender
judd
invitational
shrimp
uhf
##icient
cleaner
longitudinal
tanker
##mur
acronym
broker
koppen
sundance
suppliers
##gil
clipped
fuels
petite
##anne
landslide
helene
diversion
populous
landowners
auspices
melville
quantitative
##xes
ferries
nicky
##llus
doo
haunting
roche
carver
downed
unavailable
##pathy
approximation
hiroshima
##hue
garfield
valle
comparatively
keyboardist
traveler
##eit
congestion
calculating
subsidiaries
##bate
serb
modernization
fairies
deepened
ville
averages
##lore
inflammatory
tonga
##itch
co₂
squads
##hea
gigantic
serum
enjoyment
retailer
verona
35th
##phobic
magna
technicians
##vati
arithmetic
##sport
levin
##dation
amtrak
chow
sienna
##eyer
backstage
entrepreneurship
##otic
learnt
tao
##udy
worcestershire
formulation
baggage
hesitant
bali
sabotage
##kari
barren
enhancing
murmur
freshly
putnam
syntax
aces
medicines
resentment
bandwidth
##sier
grins
chili
guido
##sei
framing
implying
gareth
lissa
genevieve
pertaining
admissions
geo
thorpe
proliferation
sato
bela
analyzing
parting
##gor
awakened
##isman
huddled
secrecy
##kling
hush
gentry
dungeons
##ego
coasts
##utz
sacrificed
##chule
landowner
mutually
prevalence
programmer
adolescent
disrupted
seaside
gee
trusts
vamp
georgie
##nesian
##iol
schedules
sindh
##market
etched
hm
sparse
bey
beaux
scratching
gliding
unidentified
collaborating
gems
jesuits
oro
accumulation
shaping
mbe
anal
##xin
enthusiasts
newscast
##egan
janata
dewey
parkinson
ankara
biennial
towering
inconsistent
##chet
thriving
terminate
cabins
furiously
eats
advocating
donkey
marley
muster
phyllis
leiden
##user
grassland
glittering
iucn
loneliness
memorandum
armenians
##ddle
popularized
rhodesia
60s
lame
##illon
sans
bikini
header
orbits
##finger
##ulator
sharif
spines
biotechnology
strolled
naughty
yates
##wire
fremantle
milo
##mour
abducted
removes
##atin
humming
##chrome
##ester
hume
pivotal
##rates
armand
grams
believers
elector
rte
apron
scraped
##yria
endorsement
initials
##llation
dotted
hints
buzzing
emigration
nearer
indicators
##ulu
coarse
neutron
protectorate
##uze
directional
exploits
pains
loire
1830s
proponents
guggenheim
rabbits
ritchie
hectare
inputs
hutton
##raz
verify
##ako
boilers
longitude
##lev
skeletal
yer
emilia
citrus
compromised
##gau
prescription
paragraph
eduard
cadillac
attire
categorized
kenyan
weddings
charley
##bourg
entertain
monmouth
##lles
nutrients
davey
mesh
incentive
practised
ecosystems
kemp
subdued
overheard
##rya
bodily
maxim
##nius
apprenticeship
ursula
##fight
lodged
rug
silesian
unconstitutional
patel
inspected
coyote
unbeaten
##hak
34th
disruption
convict
parcel
##nham
collier
implicated
mallory
##iac
susannah
winkler
##rber
shia
phelps
sediments
graphical
robotic
##sner
adulthood
mart
smoked
##isto
kathryn
clarified
##aran
divides
convictions
oppression
pausing
burying
##mt
federico
mathias
eileen
##tana
kite
hunched
##acies
##atz
disadvantage
liza
kinetic
greedy
paradox
yokohama
dowager
trunks
ventured
##gement
gupta
vilnius
olaf
##thest
crimean
hopper
##ej
progressively
arturo
mouthed
arrondissement
##fusion
rubin
simulcast
oceania
##orum
##stra
##rred
busiest
intensely
navigator
cary
##vine
##hini
##bies
fife
rowe
rowland
posing
insurgents
shafts
lawsuits
activate
conor
inward
culturally
garlic
##eering
eclectic
##hui
##kee
##nl
furrowed
vargas
meteorological
rendezvous
##aus
culinary
commencement
##dition
quota
##notes
mommy
salaries
overlapping
mule
##iology
##mology
sums
wentworth
##isk
##zione
mainline
subgroup
##illy
hack
plaintiff
verdi
bulb
differentiation
engagements
multinational
supplemented
bertrand
caller
regis
##naire
##sler
##arts
##imated
blossom
propagation
kilometer
viaduct
vineyards
##uate
beckett
optimization
golfer
songwriters
seminal
semitic
thud
volatile
evolving
ridley
##wley
trivial
distributions
scandinavia
wrestled
insistence
emphasizes
napkin
##ods
adjunct
rhyme
##ricted
##eti
hopeless
surrounds
tremble
32nd
smoky
##ntly
oils
medicinal
padded
steer
wilkes
concessions
hue
uniquely
blinded
landon
##lane
hendrix
commemorating
dex
specify
chicks
##ggio
intercity
morley
##torm
highlighting
##oting
pang
oblique
stalled
##liner
flirting
newborn
bishopric
shaved
currie
dharma
spartan
##ooped
favorites
smug
novella
sirens
abusive
creations
espana
##lage
paradigm
semiconductor
sheen
##rdo
##yen
##zak
nrl
renew
##pose
##tur
adjutant
marches
norma
##enity
ineffective
weimar
grunt
##gat
lordship
plotting
expenditure
infringement
refrain
mimi
mistakenly
postmaster
##bara
ras
motorsports
tito
subjective
##zza
bully
stew
##kaya
prescott
##raphic
##zam
bids
styling
paranormal
reeve
sneaking
exploding
katz
akbar
migrant
syllables
indefinitely
##ogical
destroys
replaces
applause
##phine
pest
##fide
articulated
bertie
##cars
##ptic
courtroom
crowley
aesthetics
cummings
tehsil
hormones
titanic
dangerously
##ibe
stadion
jaenelle
auguste
ciudad
##chu
mysore
partisans
lucan
philipp
##aly
debating
henley
interiors
##rano
##tious
homecoming
beyonce
usher
henrietta
prepares
weeds
ely
plucked
##pire
##dable
luxurious
##aq
artifact
password
pasture
juno
maddy
minsk
##dder
##ologies
##rone
assessments
martian
royalist
examines
##mani
nino
parry
scooped
relativity
##eli
##uting
##cao
congregational
noisy
traverse
##agawa
strikeouts
nickelodeon
obituary
transylvania
binds
depictions
polk
trolley
##yed
##lard
breeders
##under
dryly
hokkaido
strengths
stacks
bonaparte
neared
prostitutes
stamped
anaheim
gutierrez
sinai
##zzling
bram
fresno
madhya
proton
##lena
##llum
##phon
reelected
wanda
##anus
##lb
ample
distinguishing
##yler
grasping
sermons
tomato
bland
stimulation
avenues
##eux
spreads
scarlett
fern
pentagon
assert
baird
chesapeake
calmed
distortion
fatalities
##olis
correctional
pricing
##astic
##gina
prom
dammit
ying
collaborate
##chia
welterweight
33rd
pointer
substitution
bonded
umpire
communicating
multitude
paddle
##obe
federally
intimacy
##insky
betray
ssr
##lett
##lves
##therapy
airbus
##tery
functioned
ud
bearer
biomedical
##hire
##nca
condom
brink
ik
##nical
macy
flap
gma
experimented
jelly
lavender
##icles
##ulia
munro
##mian
##tial
rye
##rle
60th
gigs
hottest
rotated
predictions
fuji
bu
##erence
##omi
barangay
##fulness
##sas
clocks
##rwood
##liness
cereal
roe
wight
decker
uttered
babu
onion
forcibly
##df
petra
sarcasm
hartley
peeled
storytelling
##xley
##ysis
##ffa
fibre
kiel
auditor
fig
harald
greenville
##berries
geographically
nell
quartz
##athic
cemeteries
crossings
nah
holloway
reptiles
chun
sichuan
snowy
corrections
##ivo
ambassadors
blacksmith
fielded
fluids
hardcover
turnover
medications
melvin
academies
##erton
roach
absorbing
spaniards
colton
##founded
outsider
espionage
kelsey
edible
##ulf
dora
establishes
##sham
##tries
contracting
##tania
cinematic
costello
nesting
##uron
connolly
duff
##nology
mma
##mata
fergus
sexes
optics
spectator
woodstock
banning
##hee
##fle
differentiate
outfielder
refinery
gerhard
horde
lair
drastically
##udi
landfall
##cheng
motorsport
odi
##achi
predominant
quay
skins
##ental
edna
harshly
complementary
murdering
##aves
wreckage
ono
outstretched
lennox
munitions
galen
reconcile
scalp
bicycles
gillespie
questionable
rosenberg
guillermo
jarvis
kabul
opium
yd
##twined
abuses
decca
outpost
##cino
sensible
neutrality
ponce
anchorage
atkins
turrets
inadvertently
disagree
libre
vodka
reassuring
weighs
##yal
glide
jumper
ceilings
repertory
outs
stain
##bial
envy
##ucible
smashing
heightened
policing
hyun
mixes
lai
prima
##ples
celeste
##bina
lucrative
intervened
kc
manually
##rned
stature
staffed
bun
bastards
nairobi
priced
##auer
thatcher
##kia
tripped
comune
##ogan
##pled
brasil
incentives
emanuel
hereford
musica
##kim
benedictine
biennale
##lani
eureka
gardiner
rb
knocks
sha
##ael
##elled
##onate
efficacy
ventura
masonic
sanford
maize
leverage
##feit
capacities
santana
##aur
novelty
vanilla
##cter
##tour
benin
##oir
neptune
drafting
tallinn
##cable
humiliation
##boarding
schleswig
fabian
bernardo
liturgy
spectacle
sweeney
pont
routledge
cosmos
ut
hilt
sleek
universally
##eville
##gawa
typed
##dry
favors
allegheny
glaciers
##rly
recalling
aziz
parasite
requiem
auf
##berto
##llin
illumination
##breaker
##issa
festivities
bows
govern
vibe
vp
sprawled
larson
pilgrim
bwf
leaping
##rts
##ssel
alexei
greyhound
hoarse
##dler
##oration
seneca
##cule
gaping
##ulously
##pura
cinnamon
##gens
##rricular
craven
fantasies
houghton
engined
reigned
dictator
supervising
##oris
bogota
commentaries
unnatural
fingernails
spirituality
tighten
canadiens
protesting
intentional
cheers
sparta
##ytic
##iere
##zine
widen
belgarath
controllers
dodd
iaaf
navarre
##ication
defect
squire
steiner
whisky
##mins
inevitably
tome
##gold
chew
##lid
elastic
##aby
streaked
alliances
jailed
regal
##ined
##phy
czechoslovak
narration
absently
##uld
bluegrass
guangdong
quran
criticizing
hose
hari
##liest
##owa
skier
streaks
deploy
##lom
raft
bose
dialed
huff
##eira
haifa
simplest
bursting
endings
sultanate
##titled
franks
whitman
ensures
sven
##ggs
collaborators
forster
organising
banished
napier
injustice
teller
layered
thump
##otti
roc
battleships
evidenced
fugitive
sadie
robotics
##roud
equatorial
geologist
##iza
yielding
##bron
##sr
internationale
mecca
##diment
skyline
toad
uploaded
reflective
undrafted
lal
leafs
bayern
##dai
lakshmi
shortlisted
##stick
##wicz
camouflage
donate
christi
lau
##acio
disclosed
nemesis
1761
assemble
straining
northamptonshire
tal
##asi
bernardino
premature
heidi
42nd
coefficients
galactic
reproduce
buzzed
sensations
zionist
monsieur
myrtle
archery
strangled
musically
viewpoint
antiquities
bei
trailers
seahawks
cured
pee
preferring
tasmanian
lange
sul
##working
colder
overland
lucivar
massey
gatherings
haitian
##smith
disapproval
flaws
##cco
##enbach
npr
##icular
boroughs
creole
forums
techno
dent
abdominal
streetcar
##eson
##stream
procurement
gemini
predictable
##tya
acheron
christoph
feeder
fronts
vendor
bernhard
jammu
tumors
slang
##uber
goaltender
twists
curving
manson
vuelta
mer
peanut
confessions
pouch
unpredictable
allowance
theodor
vascular
##factory
bala
authenticity
metabolic
coughing
nanjing
##cea
pembroke
##bard
splendid
36th
hourly
##ahu
elmer
handel
##ivate
awarding
thrusting
experimentation
##hesion
caressed
entertained
steak
##rangle
biologist
orphans
baroness
oyster
stepfather
##dridge
mirage
reefs
speeding
barons
inhabit
preached
repealed
##tral
honoring
boogie
captives
administer
johanna
##imate
gel
suspiciously
1767
sobs
##dington
backbone
hayward
garry
##folding
##nesia
maxi
##oof
##ppe
ellison
galileo
##stand
crimea
frenzy
amour
bumper
matrices
natalia
baking
garth
palestinians
##grove
smack
conveyed
ensembles
gardening
##manship
##rup
##stituting
harvesting
topography
shifters
dormitory
##carriage
##lston
ist
skulls
##stadt
dolores
jewellery
sarawak
##wai
##zier
fences
christy
confinement
tumbling
credibility
fir
stench
##bria
##plication
##nged
##sam
virtues
##belt
marjorie
pba
##eem
##made
celebrates
schooner
agitated
barley
fulfilling
anthropologist
restrict
novi
regulating
##nent
padres
##rani
##hesive
loyola
tabitha
milky
olson
proprietor
crambidae
guarantees
intercollegiate
ljubljana
hilda
##sko
ignorant
hooded
sardinia
##lidae
##vation
frontman
privileged
witchcraft
jammed
laude
poking
##than
bracket
amazement
yunnan
##erus
maharaja
linnaeus
commissioning
milano
peacefully
##logies
akira
rani
regulator
grasses
##rance
luzon
crows
compiler
gretchen
seaman
edouard
buccaneers
ellington
hamlets
whig
socialists
##anto
directorial
easton
mythological
##kr
##vary
rhineland
semantic
taut
dune
inventions
succeeds
##iter
replication
branched
##pired
prosecuted
kangaroo
penetrated
##avian
middlesbrough
doses
bleak
madam
predatory
relentless
##vili
reluctance
##vir
hailey
crore
silvery
monstrous
swimmers
transmissions
hawthorn
informing
##eral
toilets
caracas
crouch
##sett
cartel
hadley
##aling
alexia
yvonne
##biology
cinderella
eton
superb
blizzard
stabbing
industrialist
maximus
##orus
groves
maud
clade
oversized
comedic
##bella
rosen
nomadic
fulham
montane
beverages
galaxies
redundant
swarm
##rot
##folia
##llis
buckinghamshire
fen
bearings
bahadur
##rom
gilles
phased
dynamite
faber
benoit
##ount
fractured
tailored
anya
spices
westwood
cairns
auditions
inflammation
steamed
##rocity
##acion
##urne
skyla
thereof
watford
torment
archdeacon
transforms
demeanor
fucked
serge
##sor
mckenna
minas
entertainer
##icide
caress
originate
residue
##sty
##ilised
##org
beech
##wana
subsidies
##ghton
emptied
gladstone
firefighters
voodoo
het
nightingale
tamara
edmond
ingredient
weaknesses
silhouette
compatibility
withdrawing
hampson
##mona
anguish
giggling
bookstore
southernmost
tilting
##vance
bai
economical
briefcase
dreadful
hinted
projections
shattering
totaling
##rogate
analogue
indicted
periodical
fullback
##dman
haynes
##tenberg
##ffs
##ishment
thirst
stumble
penang
vigorous
##ddling
##kor
##lium
octave
##ove
##enstein
##inen
##ones
siberian
##uti
cbn
repeal
swaying
##vington
khalid
tanaka
unicorn
otago
plastered
lobe
riddle
##rella
perch
##ishing
croydon
filtered
graeme
tripoli
##ossa
crocodile
##chers
sufi
mined
##tung
inferno
lsu
##phi
swelled
utilizes
£2
cale
periodicals
styx
hike
informally
coop
lund
##tidae
ala
hen
qui
transformations
disposed
sheath
chickens
##cade
fitzroy
silesia
unacceptable
odisha
sabrina
spokane
ratios
athena
massage
dilemma
##drum
##riz
##hul
corona
doubtful
niall
##pha
##bino
fines
cite
acknowledging
bangor
ballard
bathurst
##resh
huron
mustered
alzheimer
garments
kinase
tyre
warship
flashback
pulmonary
braun
cheat
kamal
cyclists
constructions
grenades
ndp
traveller
excuses
stomped
signalling
trimmed
futsal
mosques
relevance
##wine
wta
##vah
hoc
##riding
optimistic
##´s
deco
interacting
rejecting
moniker
waterways
##ieri
##oku
mayors
gdansk
outnumbered
pearls
##ended
##hampton
fairs
totals
dominating
notions
stairway
compiling
pursed
commodities
grease
yeast
##jong
carthage
griffiths
residual
amc
contraction
laird
sapphire
##marine
##ivated
amalgamation
dissolve
inclination
lyle
packaged
altitudes
suez
canons
graded
lurched
narrowing
boasts
guise
enrico
##ovsky
rower
scarred
bree
cub
iberian
protagonists
bargaining
proposing
trainers
voyages
fishes
##aea
##ivist
##verance
encryption
artworks
kazan
sabre
cleopatra
hepburn
rotting
supremacy
mecklenburg
##brate
burrows
hazards
outgoing
flair
organizes
##ctions
scorpion
##usions
boo
chevalier
dunedin
slapping
ineligible
pensions
##omic
manufactures
emails
bismarck
weakening
blackish
ding
mcgee
quo
##rling
northernmost
manpower
greed
sampson
clicking
##ange
##horpe
##inations
##roving
torre
##eptive
##moral
symbolism
38th
asshole
meritorious
outfits
splashed
biographies
sprung
astros
##tale
filly
raoul
nw
tokugawa
linden
clubhouse
##apa
tracts
romano
##pio
putin
chained
dickson
gunshot
moe
gunn
rashid
##tails
zipper
##bas
##nea
contrasted
##ply
##udes
plum
pharaoh
##pile
aw
comedies
ingrid
sandwiches
subdivisions
mariana
kamen
delaney
veto
herring
##words
possessive
outlines
##roup
siemens
stairwell
gallantry
messiah
palais
yells
zeppelin
bolivar
##cede
smackdown
mckinley
##mora
##yt
muted
geologic
finely
unitary
avatar
hamas
maynard
rees
bog
contrasting
##rut
liv
chico
disposition
##erate
becca
dmitry
yeshiva
narratives
##lva
##ulton
mercenary
sharpe
tempered
navigate
stealth
amassed
keynes
##lini
untouched
##rrie
havoc
lithium
##fighting
abyss
graf
southward
wolverine
balloons
implements
ngos
transitions
##icum
ambushed
concacaf
dormant
economists
##dim
costing
csi
rana
universite
boulders
verity
##llon
collin
mellon
misses
cypress
fluorescent
lifeless
spence
##ulla
crewe
shepard
pak
revelations
##م
jolly
gibbons
paw
##dro
##quel
freeing
shack
fries
palatine
##hiko
accompaniment
cruising
recycled
##aver
erwin
sorting
synthesizers
dyke
realities
strides
enslaved
wetland
##ghan
competence
gunpowder
grassy
maroon
reactors
objection
##oms
carlson
gearbox
macintosh
radios
shelton
##sho
clergyman
prakash
mongols
trophies
oricon
stimuli
twenty20
cantonese
cortes
mirrored
##saurus
bhp
cristina
melancholy
##lating
enjoyable
nuevo
##wny
downfall
schumacher
##ind
banging
lausanne
rumbled
paramilitary
reflex
ax
amplitude
migratory
##gall
##ups
barnard
lastly
sherry
##nall
keystone
##kra
carleton
slippery
coloring
foe
otter
##rgos
mats
##tose
consultants
bafta
bison
topping
primal
abandonment
transplant
atoll
hideous
mort
pained
reproduced
tae
howling
##turn
unlawful
billionaire
hotter
poised
lansing
##chang
dinamo
retro
messing
domesday
##mina
blitz
timed
##athing
##kley
ascending
gesturing
##izations
signaled
tis
chinatown
mermaid
savanna
jameson
##aint
catalina
##pet
##hers
cochrane
cy
chatting
##kus
alerted
computation
mused
noelle
majestic
mohawk
campo
octagonal
##sant
##hend
aspiring
##mart
comprehend
iona
paralyzed
shimmering
swindon
rhone
##eley
reputed
configurations
pitchfork
agitation
francais
gillian
lipstick
##ilo
outsiders
pontifical
resisting
bitterness
sewer
rockies
##edd
##ucher
misleading
exiting
galloway
##nging
risked
##heart
commemoration
schultz
##rka
integrating
##rsa
poses
shrieked
##weiler
guineas
gladys
jerking
owls
goldsmith
nightly
penetrating
##unced
lia
ignited
betsy
##aring
##thorpe
follower
vigorously
##rave
coded
kiran
knit
zoology
tbilisi
##bered
repository
govt
deciduous
dino
growling
##bba
enhancement
unleashed
chanting
pussy
biochemistry
##eric
kettle
repression
toxicity
nrhp
##arth
##kko
##bush
ernesto
commended
outspoken
mca
parchment
kristen
##aton
bisexual
raked
glamour
navajo
conditioned
showcased
##hma
spacious
youthful
##esa
usl
appliances
junta
brest
layne
conglomerate
enchanted
chao
loosened
picasso
circulating
inspect
montevideo
##centric
##kti
piazza
spurred
##aith
bari
freedoms
poultry
stamford
lieu
indigo
sarcastic
bahia
stump
attach
dvds
frankenstein
lille
approx
scriptures
pollen
##script
nmi
overseen
##ivism
tides
proponent
newmarket
inherit
milling
##erland
centralized
##rou
distributors
credentials
drawers
abbreviation
##lco
downing
uncomfortably
ripe
##oes
erase
franchises
populace
##bery
##khar
decomposition
pleas
##tet
daryl
sabah
##wide
fearless
genie
lesions
annette
##ogist
oboe
appendix
nair
dripped
petitioned
maclean
mosquito
parrot
hampered
operatic
reservoirs
##tham
irrelevant
jolt
summarized
##fp
medallion
##taff
##−
clawed
harlow
narrower
goddard
marcia
bodied
fremont
suarez
altering
tempest
mussolini
porn
##isms
sweetly
oversees
walkers
solitude
grimly
shrines
ich
supervisors
hostess
dietrich
legitimacy
brushes
expressive
##yp
dissipated
##rse
localized
systemic
##nikov
gettysburg
##uaries
dialogues
muttering
housekeeper
sicilian
discouraged
##frey
beamed
kaladin
halftime
kidnap
##amo
##llet
1754
synonymous
depleted
instituto
insulin
reprised
##opsis
clashed
##ctric
interrupting
radcliffe
insisting
medici
ejected
playfully
turbulent
starvation
##rini
shipment
rebellious
petersen
verification
merits
##rified
cakes
##charged
milford
shortages
spying
fidelity
##aker
emitted
storylines
harvested
seismic
##iform
cheung
kilda
theoretically
barbie
lynx
##rgy
##tius
goblin
mata
poisonous
##nburg
reactive
residues
obedience
##евич
conjecture
##rac
hating
sixties
kicker
moaning
motown
##bha
emancipation
neoclassical
##hering
consoles
ebert
professorship
##tures
sustaining
assaults
obeyed
affluent
incurred
tornadoes
##eber
##zow
emphasizing
highlanders
cheated
helmets
##ctus
internship
terence
bony
executions
legislators
berries
peninsular
tinged
##aco
amplifier
corvette
ribbons
lavish
pennant
##lander
worthless
##chfield
##forms
mariano
pyrenees
expenditures
##icides
chesterfield
mandir
tailor
39th
sergey
nestled
willed
aristocracy
devotees
goodnight
raaf
rumored
weaponry
remy
appropriations
harcourt
burr
riaa
##lence
limitation
unnoticed
soaking
swamps
##tica
collapsing
tatiana
descriptive
brigham
psalm
##chment
maddox
##lization
patti
caliph
##aja
akron
injuring
serra
##ganj
basins
##sari
astonished
launcher
##church
hilary
wilkins
sewing
##sf
stinging
##fia
##ncia
underwood
startup
compilations
vibrations
embankment
jurist
bard
juventus
groundwater
kern
palaces
helium
boca
cramped
marissa
soto
##worm
jae
princely
##ggy
faso
bazaar
warmly
##voking
pairing
##lite
##grate
##nets
wien
freaked
ulysses
rebirth
##alia
mummy
guzman
jimenez
stilled
##nitz
trajectory
tha
woken
archival
professions
##pts
##pta
hilly
shadowy
shrink
##bolt
norwood
glued
migrate
stereotypes
devoid
##pheus
evacuate
horrors
infancy
gotham
knowles
optic
downloaded
sachs
kingsley
parramatta
darryl
mor
##onale
shady
commence
confesses
kan
##meter
##placed
marlborough
roundabout
regents
frigates
##imating
gothenburg
revoked
carvings
clockwise
convertible
intruder
##sche
banged
##ogo
vicky
bourgeois
##mony
dupont
footing
##gum
##real
buckle
yun
penthouse
sane
serviced
stakeholders
neumann
##eers
comb
##gam
catchment
pinning
rallies
typing
##elles
forefront
freiburg
sweetie
giacomo
widowed
goodwill
worshipped
aspirations
midday
##vat
fishery
##trick
bournemouth
turk
hearth
ethanol
guadalajara
murmurs
##uge
afforded
scripted
##hta
wah
##jn
coroner
translucent
memorials
puck
progresses
clumsy
##race
candace
recounted
##slin
##uve
filtering
##mac
howl
strata
heron
leveled
##ays
dubious
##oja
##т
##wheel
citations
exhibiting
##laya
##mics
turkic
##lberg
injunction
##ennial
antibodies
organise
##rigues
cardiovascular
cushion
inverness
##zquez
dia
cocoa
sibling
##tman
##roid
expanse
feasible
tunisian
algiers
##relli
rus
dso
westphalia
bro
tacoma
downloads
##ours
konrad
duran
##hdi
continuum
jett
compares
legislator
secession
##nable
##gues
##zuka
translating
reacher
##gley
##ła
aleppo
##agi
orchards
trapping
linguist
versatile
drumming
postage
calhoun
superiors
##mx
barefoot
leary
##cis
ignacio
alfa
kaplan
##rogen
bratislava
mori
##vot
disturb
haas
cartridges
gilmore
radiated
salford
tunic
hades
##ulsive
archeological
delilah
magistrates
auditioned
brewster
charters
empowerment
blogs
cappella
dynasties
iroquois
whipping
##krishna
raceway
truths
myra
weaken
judah
mcgregor
##horse
refueling
37th
burnley
bosses
markus
premio
query
##gga
dunbar
##economic
darkest
lyndon
sealing
commendation
reappeared
##mun
addicted
ezio
slaughtered
satisfactory
shuffle
##eves
##thic
##uj
fortification
warrington
##otto
resurrected
fargo
mane
##utable
##lei
foreword
ox
##aris
##vern
abrams
hua
##mento
sakura
##alo
sentimental
##skaya
midfield
##eses
sturdy
scrolls
macleod
##kyu
entropy
##lance
mitochondrial
cicero
excelled
thinner
convoys
perceive
##oslav
##urable
systematically
grind
burkina
##tagram
ops
##aman
guantanamo
##cloth
##tite
forcefully
wavy
##jou
pointless
##linger
##tze
layton
portico
superficial
clerical
outlaws
##hism
burials
muir
##inn
creditors
hauling
rattle
##leg
calais
monde
archers
reclaimed
dwell
wexford
hellenic
falsely
remorse
##tek
dough
furnishings
##uttered
gabon
neurological
novice
##igraphy
contemplated
pulpit
nightstand
saratoga
##istan
documenting
pulsing
taluk
##firmed
busted
marital
##rien
disagreements
wasps
##yes
hodge
mcdonnell
mimic
fran
pendant
dhabi
musa
##nington
congratulations
argent
darrell
concussion
losers
regrets
thessaloniki
reversal
donaldson
hardwood
thence
achilles
ritter
##eran
demonic
jurgen
prophets
goethe
eki
classmate
##cking
yank
irrational
##inging
perished
seductive
qur
sourced
##crat
##typic
mustard
ravine
barre
horizontally
characterization
phylogenetic
boise
##dit
##runner
##tower
brutally
intercourse
seduce
##bbing
fay
ferris
ogden
amar
nik
unarmed
##inator
evaluating
kyrgyzstan
sweetness
##lford
##oki
mccormick
meiji
notoriety
stimulate
disrupt
figuring
instructional
mcgrath
##zoo
groundbreaking
##lto
flinch
khorasan
agrarian
bengals
mixer
radiating
##sov
ingram
pitchers
nad
tariff
##cript
tata
##codes
##emi
##ungen
appellate
lehigh
##bled
##giri
brawl
duct
texans
##ciation
##ropolis
skipper
speculative
vomit
doctrines
stresses
davy
graders
whitehead
jozef
timely
cumulative
haryana
paints
appropriately
boon
cactus
##ales
##pid
dow
legions
##pit
perceptions
picturesque
##yse
periphery
rune
wr
##aha
celtics
sentencing
whoa
##erin
confirms
variance
moines
mathews
spade
rave
fronted
blending
alleging
reared
##paper
grassroots
eroded
##physical
directs
ordeal
##sław
accelerate
hacker
rooftop
##inia
lev
buys
cebu
devote
##lce
specialising
##ulsion
choreographed
repetition
warehouses
##ryl
paisley
tuscany
analogy
sorcerer
hash
huts
shards
descends
exclude
nix
chaplin
ito
vane
##drich
causeway
misconduct
limo
orchestrated
glands
jana
##kot
##sons
branching
[...]
